{
  "version": "1.0",
  "truncation": {
    "direction": "Right",
    "max_length": 512,
    "strategy": "LongestFirst",
    "stride": 0
  },
  "padding": null,
  "added_tokens": [
    {
      "id": 100000,
      "content": "<｜begin▁of▁sentence｜>",
      "single_word": false,
      "lstrip": false,
      "rstrip": false,
      "normalized": true,
      "special": true
    },
    {
      "id": 100001,
      "content": "<｜end▁of▁sentence｜>",
      "single_word": false,
      "lstrip": false,
      "rstrip": false,
      "normalized": true,
      "special": true
    },
    {
      "id": 100002,
      "content": "ø",
      "single_word": false,
      "lstrip": false,
      "rstrip": false,
      "normalized": true,
      "special": false
    },
    {
      "id": 100003,
      "content": "ö",
      "single_word": false,
      "lstrip": false,
      "rstrip": false,
      "normalized": true,
      "special": false
    },
    {
      "id": 100004,
      "content": "ú",
      "single_word": false,
      "lstrip": false,
      "rstrip": false,
      "normalized": true,
      "special": false
    },
    {
      "id": 100005,
      "content": "ÿ",
      "single_word": false,
      "lstrip": false,
      "rstrip": false,
      "normalized": true,
      "special": false
    },
    {
      "id": 100006,
      "content": "õ",
      "single_word": false,
      "lstrip": false,
      "rstrip": false,
      "normalized": true,
      "special": false
    },
    {
      "id": 100007,
      "content": "÷",
      "single_word": false,
      "lstrip": false,
      "rstrip": false,
      "normalized": true,
      "special": false
    },
    {
      "id": 100008,
      "content": "û",
      "single_word": false,
      "lstrip": false,
      "rstrip": false,
      "normalized": true,
      "special": false
    },
    {
      "id": 100009,
      "content": "ý",
      "single_word": false,
      "lstrip": false,
      "rstrip": false,
      "normalized": true,
      "special": false
    },
    {
      "id": 100010,
      "content": "À",
      "single_word": false,
      "lstrip": false,
      "rstrip": false,
      "normalized": true,
      "special": false
    },
    {
      "id": 100011,
      "content": "ù",
      "single_word": false,
      "lstrip": false,
      "rstrip": false,
      "normalized": true,
      "special": false
    },
    {
      "id": 100012,
      "content": "Á",
      "single_word": false,
      "lstrip": false,
      "rstrip": false,
      "normalized": true,
      "special": false
    },
    {
      "id": 100013,
      "content": "þ",
      "single_word": false,
      "lstrip": false,
      "rstrip": false,
      "normalized": true,
      "special": false
    },
    {
      "id": 100014,
      "content": "ü",
      "single_word": false,
      "lstrip": false,
      "rstrip": false,
      "normalized": true,
      "special": false
    },
    {
      "id": 100015,
      "content": "<|EOT|>",
      "single_word": false,
      "lstrip": false,
      "rstrip": false,
      "normalized": true,
      "special": true
    }
  ],
  "normalizer": {
    "type": "Sequence",
    "normalizers": []
  },
  "pre_tokenizer": {
    "type": "Sequence",
    "pretokenizers": [
      {
        "type": "Split",
        "pattern": {
          "Regex": "[\r\n]"
        },
        "behavior": "Isolated",
        "invert": false
      },
      {
        "type": "Split",
        "pattern": {
          "Regex": "\\s?[A-Za-zµÀ-ÖØ-öø-ƺƼ-ƿǄ-ʓʕ-ʯͰ-ͳͶͷͻ-ͽͿΆΈ-ΊΌΎ-ΡΣ-ϵϷ-ҁҊ-ԯԱ-ՖႠ-ჅᎠ-Ᏽᏸ-ᏽᲐ-ᲺᲽ-Ჿᴀ-ᴫᵫ-ᵷᵹ-ᶚḀ-ἕἘ-Ἕἠ-ὅὈ-Ὅὐ-ὗὙὛὝὟ-ώᾀ-ᾴᾶ-ᾼιῂ-ῄῆ-ῌῐ-ΐῖ-Ίῠ-Ῥῲ-ῴῶ-ῼℂℇℊ-ℓℕℙ-ℝℤΩℨK-ℭℯ-ℴℹℼ-ℿⅅ-ⅉⅎↃↄⰀ-ⱻⱾ-ⳤⳫ-ⳮⳲⳳꙀ-ꙭꚀ-ꚛꜢ-ꝯꝱ-ꞇꞋ-ꞎꭰ-ꮿﬀ-ﬆﬓ-ﬗＡ-Ｚａ-ｚ𐐀-𐑏𐒰-𐓓𐓘-𐓻𐲀-𐲲𐳀-𐳲𑢠-𑣟𞤀-𞥃]+"
        },
        "behavior": "Isolated",
        "invert": false
      },
      {
        "type": "Split",
        "pattern": {
          "Regex": "\\s?[!-/:-~！-／：-～‘-‟　-。]+"
        },
        "behavior": "Isolated",
        "invert": false
      },
      {
        "type": "Split",
        "pattern": {
          "Regex": "\\s+$"
        },
        "behavior": "Isolated",
        "invert": false
      },
      {
        "type": "Split",
        "pattern": {
          "Regex": "[一-龥ࠀ-一가-퟿]+"
        },
        "behavior": "Isolated",
        "invert": false
      },
      {
        "type": "Digits",
        "individual_digits": true
      },
      {
        "type": "ByteLevel",
        "add_prefix_space": false,
        "trim_offsets": true,
        "use_regex": false
      }
    ]
  },
  "post_processor": {
    "type": "TemplateProcessing",
    "single": [
      {
        "SpecialToken": {
          "id": "<｜begin▁of▁sentence｜>",
          "type_id": 0
        }
      },
      {
        "Sequence": {
          "id": "A",
          "type_id": 0
        }
      }
    ],
    "pair": [
      {
        "SpecialToken": {
          "id": "<｜begin▁of▁sentence｜>",
          "type_id": 0
        }
      },
      {
        "Sequence": {
          "id": "A",
          "type_id": 0
        }
      },
      {
        "SpecialToken": {
          "id": "<｜begin▁of▁sentence｜>",
          "type_id": 1
        }
      },
      {
        "Sequence": {
          "id": "B",
          "type_id": 1
        }
      }
    ],
    "special_tokens": {
      "<｜begin▁of▁sentence｜>": {
        "id": "<｜begin▁of▁sentence｜>",
        "ids": [
          100000
        ],
        "tokens": [
          "<｜begin▁of▁sentence｜>"
        ]
      }
    }
  },
  "decoder": {
    "type": "ByteLevel",
    "add_prefix_space": true,
    "trim_offsets": true,
    "use_regex": true
  },
  "model": {
    "type": "BPE",
    "dropout": null,
    "unk_token": null,
    "continuing_subword_prefix": null,
    "end_of_word_suffix": null,
    "fuse_unk": false,
    "byte_fallback": false,
    "ignore_merges": false,
    "vocab": {
      "!": 0,
      "\"": 1,
      "#": 2,
      "$": 3,
      "%": 4,
      "&": 5,
      "'": 6,
      "(": 7,
      ")": 8,
      "*": 9,
      "+": 10,
      ",": 11,
      "-": 12,
      ".": 13,
      "/": 14,
      "0": 15,
      "1": 16,
      "2": 17,
      "3": 18,
      "4": 19,
      "5": 20,
      "6": 21,
      "7": 22,
      "8": 23,
      "9": 24,
      ":": 25,
      ";": 26,
      "<": 27,
      "=": 28,
      ">": 29,
      "?": 30,
      "@": 31,
      "A": 32,
      "B": 33,
      "C": 34,
      "D": 35,
      "E": 36,
      "F": 37,
      "G": 38,
      "H": 39,
      "I": 40,
      "J": 41,
      "K": 42,
      "L": 43,
      "M": 44,
      "N": 45,
      "O": 46,
      "P": 47,
      "Q": 48,
      "R": 49,
      "S": 50,
      "T": 51,
      "U": 52,
      "V": 53,
      "W": 54,
      "X": 55,
      "Y": 56,
      "Z": 57,
      "[": 58,
      "\\": 59,
      "]": 60,
      "^": 61,
      "_": 62,
      "`": 63,
      "a": 64,
      "b": 65,
      "c": 66,
      "d": 67,
      "e": 68,
      "f": 69,
      "g": 70,
      "h": 71,
      "i": 72,
      "j": 73,
      "k": 74,
      "l": 75,
      "m": 76,
      "n": 77,
      "o": 78,
      "p": 79,
      "q": 80,
      "r": 81,
      "s": 82,
      "t": 83,
      "u": 84,
      "v": 85,
      "w": 86,
      "x": 87,
      "y": 88,
      "z": 89,
      "{": 90,
      "|": 91,
      "}": 92,
      "~": 93,
      "¡": 94,
      "¢": 95,
      "£": 96,
      "¤": 97,
      "¥": 98,
      "¦": 99,
      "§": 100,
      "¨": 101,
      "©": 102,
      "ª": 103,
      "«": 104,
      "¬": 105,
      "®": 106,
      "¯": 107,
      "°": 108,
      "±": 109,
      "²": 110,
      "³": 111,
      "´": 112,
      "µ": 113,
      "¶": 114,
      "·": 115,
      "¸": 116,
      "¹": 117,
      "º": 118,
      "»": 119,
      "¼": 120,
      "½": 121,
      "¾": 122,
      "¿": 123,
      "Â": 124,
      "Ã": 125,
      "Ä": 126,
      "Å": 127,
      "Æ": 128,
      "Ç": 129,
      "È": 130,
      "É": 131,
      "Ê": 132,
      "Ë": 133,
      "Ì": 134,
      "Í": 135,
      "Î": 136,
      "Ï": 137,
      "Ð": 138,
      "Ñ": 139,
      "Ò": 140,
      "Ó": 141,
      "Ô": 142,
      "Õ": 143,
      "Ö": 144,
      "×": 145,
      "Ø": 146,
      "Ù": 147,
      "Ú": 148,
      "Û": 149,
      "Ü": 150,
      "Ý": 151,
      "Þ": 152,
      "ß": 153,
      "à": 154,
      "á": 155,
      "â": 156,
      "ã": 157,
      "ä": 158,
      "å": 159,
      "æ": 160,
      "ç": 161,
      "è": 162,
      "é": 163,
      "ê": 164,
      "ë": 165,
      "ì": 166,
      "í": 167,
      "î": 168,
      "ï": 169,
      "ð": 170,
      "ñ": 171,
      "ò": 172,
      "ó": 173,
      "ô": 174,
      "Ā": 175,
      "ā": 176,
      "Ă": 177,
      "ă": 178,
      "Ą": 179,
      "ą": 180,
      "Ć": 181,
      "ć": 182,
      "Ĉ": 183,
      "ĉ": 184,
      "Ċ": 185,
      "ċ": 186,
      "Č": 187,
      "č": 188,
      "Ď": 189,
      "ď": 190,
      "Đ": 191,
      "đ": 192,
      "Ē": 193,
      "ē": 194,
      "Ĕ": 195,
      "ĕ": 196,
      "Ė": 197,
      "ė": 198,
      "Ę": 199,
      "ę": 200,
      "Ě": 201,
      "ě": 202,
      "Ĝ": 203,
      "ĝ": 204,
      "Ğ": 205,
      "ğ": 206,
      "Ġ": 207,
      "ġ": 208,
      "Ģ": 209,
      "ģ": 210,
      "Ĥ": 211,
      "ĥ": 212,
      "Ħ": 213,
      "ħ": 214,
      "Ĩ": 215,
      "ĩ": 216,
      "Ī": 217,
      "ī": 218,
      "Ĭ": 219,
      "ĭ": 220,
      "Į": 221,
      "į": 222,
      "İ": 223,
      "ı": 224,
      "Ĳ": 225,
      "ĳ": 226,
      "Ĵ": 227,
      "ĵ": 228,
      "Ķ": 229,
      "ķ": 230,
      "ĸ": 231,
      "Ĺ": 232,
      "ĺ": 233,
      "Ļ": 234,
      "ļ": 235,
      "Ľ": 236,
      "ľ": 237,
      "Ŀ": 238,
      "ŀ": 239,
      "Ł": 240,
      "ł": 241,
      "Ń": 242,
      "ĠĠ": 243,
      "Ġt": 244,
      "Ġa": 245,
      "in": 246,
      "he": 247,
      "re": 248,
      "on": 249,
      "er": 250,
      "ĠĠĠĠ": 251,
      "Ġs": 252,
      "at": 253,
      "Ġthe": 254,
      "en": 255,
      "or": 256,
      "es": 257,
      "Ġc": 258,
      "Ġw": 259,
      "it": 260,
      "an": 261,
      "is": 262,
      "Ġd": 263,
      "ou": 264,
      "Ġp": 265,
      "al": 266,
      "Ġf": 267,
      "ar": 268,
      "Ġo": 269,
      "Ġb": 270,
      "ed": 271,
      "ing": 272,
      "Ġm": 273,
      "Ġan": 274,
      "le": 275,
      "Ġto": 276,
      "ion": 277,
      "ic": 278,
      "Ġin": 279,
      "Ġof": 280,
      "as": 281,
      "el": 282,
      "om": 283,
      "Ġl": 284,
      "Ġand": 285,
      "Ġh": 286,
      "ĠÐ": 287,
      "Ġth": 288,
      "ent": 289,
      "et": 290,
      "Ġn": 291,
      "st": 292,
      "Ð°": 293,
      "ro": 294,
      "ct": 295,
      "il": 296,
      "ä¸": 297,
      "Ġre": 298,
      "ĠĠĠĠĠĠĠĠ": 299,
      "ĠĠĠ": 300,
      "Ġe": 301,
      "ot": 302,
      "am": 303,
      "ĠI": 304,
      "id": 305,
      "ac": 306,
      "Ġg": 307,
      "ad": 308,
      "im": 309,
      "un": 310,
      "Ð¸": 311,
      "ig": 312,
      "ve": 313,
      "ol": 314,
      "Ġde": 315,
      "ut": 316,
      "Ġis": 317,
      "Ðµ": 318,
      "us": 319,
      "Ġy": 320,
      "Ð¾": 321,
      "ow": 322,
      "ĠT": 323,
      "ĠS": 324,
      "ÑĤ": 325,
      "ly": 326,
      "Ġfor": 327,
      "qu": 328,
      "ver": 329,
      "Ġbe": 330,
      "Ġon": 331,
      "ur": 332,
      "ay": 333,
      "Ġ(": 334,
      "ation": 335,
      "çļ": 336,
      "çļĦ": 337,
      "ĠA": 338,
      "ĠC": 339,
      "Ġyou": 340,
      "ul": 341,
      "ÑĢ": 342,
      "ãĢ": 343,
      "Ġthat": 344,
      "Ð½": 345,
      "se": 346,
      "ce": 347,
      "ir": 348,
      "ith": 349,
      "âĢ": 350,
      "if": 351,
      "Ġst": 352,
      "Ġv": 353,
      "äº": 354,
      "od": 355,
      "ab": 356,
      "Ġ\\": 357,
      "ch": 358,
      "Ġit": 359,
      "Ġal": 360,
      "ag": 361,
      "Ġhe": 362,
      "Ġ$": 363,
      "ĠM": 364,
      "Ġcon": 365,
      "Ġwith": 366,
      "ter": 367,
      "Ñģ": 368,
      "ri": 369,
      "em": 370,
      "est": 371,
      "Ġas": 372,
      "ap": 373,
      "--": 374,
      "ĠP": 375,
      "Ġwh": 376,
      "um": 377,
      "os": 378,
      "res": 379,
      "ĠB": 380,
      "Ġpro": 381,
      "ist": 382,
      "ht": 383,
      "and": 384,
      "Ġcom": 385,
      "Ġse": 386,
      "ate": 387,
      "pe": 388,
      "ill": 389,
      "ess": 390,
      "ĠĠĠĠĠĠĠ": 391,
      "æľ": 392,
      "th": 393,
      "up": 394,
      "Ġwe": 395,
      "åı": 396,
      "her": 397,
      "ãĢĤ": 398,
      "ä»": 399,
      "ke": 400,
      "ant": 401,
      "ra": 402,
      "Ġ=": 403,
      "ld": 404,
      "Ġun": 405,
      "oc": 406,
      "out": 407,
      "ers": 408,
      "end": 409,
      "Ġor": 410,
      "Ġex": 411,
      "Ð»": 412,
      "ĠL": 413,
      "ĠD": 414,
      "ĠH": 415,
      "our": 416,
      "ĠF": 417,
      "Ġare": 418,
      "å¤": 419,
      "ore": 420,
      "rom": 421,
      "Ġha": 422,
      "ĠW": 423,
      "Ð²": 424,
      "op": 425,
      "nd": 426,
      "ĠE": 427,
      "Ġr": 428,
      "ĠThe": 429,
      "Ġat": 430,
      "iv": 431,
      "art": 432,
      "ĠR": 433,
      "åħ": 434,
      "nt": 435,
      "all": 436,
      "Ġthis": 437,
      "Ġwas": 438,
      "ort": 439,
      "Ġ\"": 440,
      "Ġnot": 441,
      "Ġne": 442,
      "è¿": 443,
      "ain": 444,
      "Ġqu": 445,
      "Ġla": 446,
      "ight": 447,
      "æĺ": 448,
      "pl": 449,
      "Ġus": 450,
      "ction": 451,
      "ĠG": 452,
      "ure": 453,
      "te": 454,
      "å®": 455,
      "Ġen": 456,
      "Ġby": 457,
      "ub": 458,
      "Ġ<": 459,
      "Ġi": 460,
      "ĠN": 461,
      "pt": 462,
      "Ġhave": 463,
      "Ðº": 464,
      "ity": 465,
      "Ġel": 466,
      "Ġsh": 467,
      "ass": 468,
      "ment": 469,
      "åĪ": 470,
      "ame": 471,
      "ould": 472,
      "Ġfrom": 473,
      "ä½": 474,
      "ies": 475,
      ");": 476,
      "åľ": 477,
      "{\\": 478,
      "ine": 479,
      "ia": 480,
      "Ġcan": 481,
      "åĲ": 482,
      "ust": 483,
      "ud": 484,
      "=\"": 485,
      "ĉĉ": 486,
      "âĢĻ": 487,
      "ell": 488,
      "ive": 489,
      "Ð´": 490,
      "age": 491,
      "ĠĠĠĠĠĠĠĠĠĠĠĠĠĠĠĠ": 492,
      "ge": 493,
      "ard": 494,
      "og": 495,
      "Ġch": 496,
      "Ġcl": 497,
      "ome": 498,
      "ial": 499,
      "ect": 500,
      "ue": 501,
      "ack": 502,
      "ä¹": 503,
      "æĺ¯": 504,
      "ä¸Ģ": 505,
      "red": 506,
      "ost": 507,
      "ĠO": 508,
      "Ġ{": 509,
      "able": 510,
      "ath": 511,
      "æĪ": 512,
      "Ġper": 513,
      "ich": 514,
      "ind": 515,
      "çĶ": 516,
      "ip": 517,
      "Ġle": 518,
      "å°": 519,
      "Ġyour": 520,
      "Ġall": 521,
      "ie": 522,
      "Ġj": 523,
      "per": 524,
      "Ġme": 525,
      "..": 526,
      "åĬ": 527,
      "Ġtr": 528,
      "av": 529,
      "Ġk": 530,
      "iz": 531,
      "xt": 532,
      "ans": 533,
      "ult": 534,
      "</": 535,
      "Ġdo": 536,
      "ãĢģ": 537,
      "cl": 538,
      "ff": 539,
      "ast": 540,
      "rou": 541,
      "ç»": 542,
      "Ġwill": 543,
      "ok": 544,
      "Ġwhe": 545,
      "ide": 546,
      "Ġab": 547,
      "Ġbut": 548,
      "The": 549,
      "ite": 550,
      "Ġwor": 551,
      "æĹ": 552,
      "Ã³": 553,
      "ib": 554,
      "ĠÐ½": 555,
      "//": 556,
      "are": 557,
      "Ġso": 558,
      "ak": 559,
      "port": 560,
      "orm": 561,
      "ions": 562,
      "ĠÑģ": 563,
      "Ñı": 564,
      "Ġif": 565,
      "_{": 566,
      "con": 567,
      "ĠJ": 568,
      "cc": 569,
      "Ġ-": 570,
      "Ġpl": 571,
      "int": 572,
      "ä¸į": 573,
      "åĽ": 574,
      "Ġ*": 575,
      "Ġ&": 576,
      "ĠU": 577,
      "ice": 578,
      "Ð¼": 579,
      "to": 580,
      "Ġup": 581,
      "Ġdel": 582,
      "der": 583,
      "de": 584,
      "ace": 585,
      "Ġhis": 586,
      "Ã©": 587,
      "Ġwhich": 588,
      "è¯": 589,
      "ase": 590,
      "Ġcomp": 591,
      "ÑĬ": 592,
      "ime": 593,
      "one": 594,
      "ĠĠĠĠĠĠĠĠĠĠĠ": 595,
      "ong": 596,
      "Ġres": 597,
      "ally": 598,
      "æĸ": 599,
      "ä¼": 600,
      "Ġmy": 601,
      "Ġad": 602,
      "Ñĥ": 603,
      "Ð½Ð¸": 604,
      "ile": 605,
      "å¹": 606,
      "ther": 607,
      "Ġam": 608,
      "æľī": 609,
      "æĿ": 610,
      "Ð·": 611,
      "åľ¨": 612,
      "eg": 613,
      "Ġgo": 614,
      "Ġ}": 615,
      "ated": 616,
      "äºĨ": 617,
      "åŃ": 618,
      "ĠÐ¿": 619,
      "ĠÐ½Ð°": 620,
      "ign": 621,
      "act": 622,
      "Ġim": 623,
      "åį": 624,
      "ous": 625,
      "----": 626,
      "ÑĢÐ°": 627,
      "Ġ$\\": 628,
      "urn": 629,
      "äºº": 630,
      "Ġap": 631,
      "ĠV": 632,
      ").": 633,
      "Ġone": 634,
      "Ġcont": 635,
      "Ġout": 636,
      "ref": 637,
      "gh": 638,
      "ne": 639,
      "è®": 640,
      "ire": 641,
      "Ġno": 642,
      "Ġhas": 643,
      "very": 644,
      "Ġlo": 645,
      "Ġque": 646,
      "ll": 647,
      "æī": 648,
      "ance": 649,
      "ÑĤÐ¾": 650,
      "ake": 651,
      "tr": 652,
      "ÑĤÐ°": 653,
      "),": 654,
      "Ġ'": 655,
      "ÃŃ": 656,
      "Ġthey": 657,
      "ep": 658,
      "ob": 659,
      "ens": 660,
      "Ġhad": 661,
      "ft": 662,
      "ĠĠĠĠĠ": 663,
      "math": 664,
      "å¸": 665,
      "ary": 666,
      "å¾": 667,
      "Ġman": 668,
      "ere": 669,
      "Ġar": 670,
      "pro": 671,
      "the": 672,
      "ang": 673,
      "ry": 674,
      "so": 675,
      "Ãł": 676,
      "ĠTh": 677,
      "du": 678,
      "Ġsu": 679,
      "ail": 680,
      "å·": 681,
      "éĩ": 682,
      "ach": 683,
      "\">": 684,
      "ĠIn": 685,
      "ix": 686,
      "èĢ": 687,
      "Ġany": 688,
      "ĥ½": 689,
      "com": 690,
      "Ġmore": 691,
      "ose": 692,
      "form": 693,
      "ord": 694,
      "ph": 695,
      "Ġdis": 696,
      "Ġpart": 697,
      "å¼": 698,
      "Ġser": 699,
      "ition": 700,
      "ber": 701,
      "åĩ": 702,
      "ress": 703,
      "Ġtheir": 704,
      "Ġdes": 705,
      "ĠÐ¸": 706,
      "ear": 707,
      "get": 708,
      "own": 709,
      "ks": 710,
      "Ġher": 711,
      "Ġes": 712,
      "ents": 713,
      "ĠÐ²": 714,
      "ors": 715,
      "Ð³": 716,
      "å¥": 717,
      "Ġli": 718,
      "ple": 719,
      "ations": 720,
      "ĠK": 721,
      "ount": 722,
      "åĨ": 723,
      "Ã¨": 724,
      "ence": 725,
      "Ð¿": 726,
      "ÑĤÐµ": 727,
      "Ð½Ð°": 728,
      "ound": 729,
      "row": 730,
      "Ñĩ": 731,
      "Ð²Ð°": 732,
      "ely": 733,
      "ru": 734,
      "Ġsp": 735,
      "ma": 736,
      "Ġsa": 737,
      "ode": 738,
      "ical": 739,
      "}\\": 740,
      "è¡": 741,
      "Ġsome": 742,
      "åº": 743,
      "Ġwould": 744,
      "Ġthere": 745,
      "**": 746,
      "éĢ": 747,
      "å¤§": 748,
      "Ġfe": 749,
      "Ġother": 750,
      "ata": 751,
      "Ġget": 752,
      "å¯": 753,
      "Ġwhen": 754,
      "ÑĢÐµ": 755,
      "Ġsc": 756,
      "ject": 757,
      "ree": 758,
      "}$": 759,
      "Ġev": 760,
      "Ġnew": 761,
      "Ġclass": 762,
      "vers": 763,
      "ä¸Ń": 764,
      "ĠÐ¾": 765,
      "Ġtime": 766,
      "ÑĢÐ¸": 767,
      "Ġthem": 768,
      "Ġour": 769,
      "ĠY": 770,
      "çĽ": 771,
      "ick": 772,
      "ype": 773,
      "In": 774,
      "ert": 775,
      "low": 776,
      "ä¸º": 777,
      "Ġwere": 778,
      "Ġwho": 779,
      "åĮ": 780,
      "^{": 781,
      "sp": 782,
      "èµ": 783,
      "reat": 784,
      "elf": 785,
      "Ġabout": 786,
      "è¿Ļ": 787,
      "==": 788,
      "lo": 789,
      "âĢľ": 790,
      "ings": 791,
      "turn": 792,
      "Ġpr": 793,
      "ex": 794,
      "Ð±": 795,
      "ink": 796,
      "ays": 797,
      "ä¸ª": 798,
      "ory": 799,
      "è§": 800,
      "ener": 801,
      "Ġ|": 802,
      "Ġbeen": 803,
      "Ġte": 804,
      "Ġag": 805,
      "æĬ": 806,
      "li": 807,
      "è´": 808,
      "ĠIt": 809,
      "nc": 810,
      "lic": 811,
      "æķ": 812,
      "Ġro": 813,
      "ck": 814,
      "ef": 815,
      "ä¸Ĭ": 816,
      "ari": 817,
      "çİ": 818,
      "å¿": 819,
      "ta": 820,
      "Ġva": 821,
      "text": 822,
      "æł": 823,
      "Ġob": 824,
      "Ġ[": 825,
      "()": 826,
      "aus": 827,
      "æĢ": 828,
      "Ġfun": 829,
      "Ġwork": 830,
      "Ġkn": 831,
      "we": 832,
      "ps": 833,
      "ual": 834,
      "åĴ": 835,
      "ÑģÑĤ": 836,
      "Ġlike": 837,
      "Ġshe": 838,
      "Ġalso": 839,
      "Ġpre": 840,
      "èĩ": 841,
      "Ġoff": 842,
      "old": 843,
      "ish": 844,
      "Ġset": 845,
      "Ġbo": 846,
      "rib": 847,
      "wo": 848,
      "vel": 849,
      "æĹ¶": 850,
      "ä»¥": 851,
      "æĪĳ": 852,
      "Ġthan": 853,
      "Ġinst": 854,
      "Ġover": 855,
      "Ġwhat": 856,
      "Ġhim": 857,
      "ild": 858,
      "Ġest": 859,
      "ark": 860,
      "irst": 861,
      "eth": 862,
      "anc": 863,
      "ont": 864,
      "fr": 865,
      "itt": 866,
      "iff": 867,
      "ç§": 868,
      "ec": 869,
      "sc": 870,
      "ock": 871,
      "¦ģ": 872,
      "åİ": 873,
      "hed": 874,
      "}}": 875,
      "Ġspe": 876,
      "ov": 877,
      "les": 878,
      "ons": 879,
      "gr": 880,
      "Ġinto": 881,
      "Ġval": 882,
      ".\"": 883,
      "å±": 884,
      "åĴĮ": 885,
      "ys": 886,
      "tern": 887,
      "æŃ": 888,
      "Ġonly": 889,
      "ÑĨ": 890,
      "âĢĵ": 891,
      "è¦ģ": 892,
      "Ġ/": 893,
      "erm": 894,
      "Ġits": 895,
      "éĿ": 896,
      "ull": 897,
      "æ°": 898,
      "Ġsup": 899,
      "ĠSt": 900,
      "enc": 901,
      "ĠÐº": 902,
      "ĠĠĠĠĠĠĠĠĠĠĠĠĠĠĠ": 903,
      "ove": 904,
      "éĹ": 905,
      "çī": 906,
      "(\\": 907,
      "ĠCh": 908,
      "Ġacc": 909,
      "ug": 910,
      "ific": 911,
      "Ġcol": 912,
      "æĿ¥": 913,
      "als": 914,
      "Ð½Ð¾": 915,
      "lect": 916,
      "Ġgr": 917,
      "yst": 918,
      "Ġ+": 919,
      "å½": 920,
      "put": 921,
      "æĶ": 922,
      "åĪ°": 923,
      "çľ": 924,
      "fter": 925,
      "ss": 926,
      "ade": 927,
      "çº": 928,
      "ä¼ļ": 929,
      "çĶŁ": 930,
      "æ²": 931,
      "egin": 932,
      "Ġneed": 933,
      "å¹´": 934,
      "aci": 935,
      "Ġcomm": 936,
      "Ġthen": 937,
      "Ġuse": 938,
      "åĳ": 939,
      "éĻ": 940,
      "å°±": 941,
      "Ð»Ð¸": 942,
      "hat": 943,
      "pos": 944,
      "ize": 945,
      "Ġhow": 946,
      "èĥ½": 947,
      "ï¼": 948,
      "ĠÐ´": 949,
      "ng": 950,
      "begin": 951,
      "æĥ": 952,
      "Ġjust": 953,
      "Ð¹": 954,
      "\",": 955,
      "è½": 956,
      "bo": 957,
      "any": 958,
      "erv": 959,
      "Ġmod": 960,
      "ÑģÐº": 961,
      "Ġadd": 962,
      "app": 963,
      "ics": 964,
      "iew": 965,
      "ble": 966,
      "oint": 967,
      "ystem": 968,
      "æ³": 969,
      "ict": 970,
      "æ¯": 971,
      "Ġreturn": 972,
      "fig": 973,
      "equ": 974,
      "Ġmay": 975,
      "âĢĿ": 976,
      "Ġdef": 977,
      "Ġbet": 978,
      "iss": 979,
      "Ġco": 980,
      "pect": 981,
      "err": 982,
      "Ã²": 983,
      "Ġtwo": 984,
      "ates": 985,
      "ning": 986,
      "Ġcons": 987,
      "ater": 988,
      "Ġpos": 989,
      "Ġent": 990,
      "Ġrec": 991,
      "åĽ½": 992,
      "Ġsaid": 993,
      "of": 994,
      "clud": 995,
      "Ġem": 996,
      "ian": 997,
      "Ġbl": 998,
      "ublic": 999,
      "ty": 1000,
      "ular": 1001,
      "ĠThis": 1002,
      "ĠWe": 1003,
      "cess": 1004,
      "åı¯": 1005,
      "Ġknow": 1006,
      "ough": 1007,
      "Ġpe": 1008,
      "ER": 1009,
      "pr": 1010,
      "ise": 1011,
      "Ġyear": 1012,
      "Ġdiff": 1013,
      "ption": 1014,
      "Ġass": 1015,
      "ient": 1016,
      "igh": 1017,
      "unt": 1018,
      "Ġsee": 1019,
      "Ġform": 1020,
      "Ġ.": 1021,
      "Ġfirst": 1022,
      "Ġshould": 1023,
      "ä¹Ł": 1024,
      "Ġfin": 1025,
      ")$": 1026,
      "Ġcould": 1027,
      "ÐµÐ½": 1028,
      "åĩº": 1029,
      "_{\\": 1030,
      "line": 1031,
      "ĠÐµ": 1032,
      "ause": 1033,
      "oth": 1034,
      "right": 1035,
      "round": 1036,
      "Ġop": 1037,
      "æŀ": 1038,
      "abel": 1039,
      "sh": 1040,
      "Ġles": 1041,
      "--------": 1042,
      "ats": 1043,
      "æİ": 1044,
      "Ġreg": 1045,
      "its": 1046,
      "Ġact": 1047,
      "Ġuna": 1048,
      "iel": 1049,
      "cal": 1050,
      "ible": 1051,
      "ied": 1052,
      "ĠÐ³": 1053,
      "Ġbec": 1054,
      "ange": 1055,
      "ä¿": 1056,
      "ÑĢÐ¾": 1057,
      "amb": 1058,
      "å¤ļ": 1059,
      "par": 1060,
      "}{": 1061,
      "Ġback": 1062,
      "ĠHe": 1063,
      "ada": 1064,
      "Ġamb": 1065,
      "Ġwhere": 1066,
      "wn": 1067,
      "Ġlook": 1068,
      "Ġthese": 1069,
      "åıĳ": 1070,
      "Ġ//": 1071,
      "Ġ_": 1072,
      "å¯¹": 1073,
      "Ġfol": 1074,
      "å¦": 1075,
      "uch": 1076,
      "ä»¬": 1077,
      "},": 1078,
      "Ġvery": 1079,
      "ource": 1080,
      "Th": 1081,
      "çĶ¨": 1082,
      "Ġke": 1083,
      ",\"": 1084,
      "Ġrel": 1085,
      "ful": 1086,
      "å®¶": 1087,
      "ring": 1088,
      "ond": 1089,
      "Ġunder": 1090,
      "Ð¶": 1091,
      "Ġrem": 1092,
      "Ġprov": 1093,
      "Ġmost": 1094,
      "è¾": 1095,
      "æĭ": 1096,
      "Ġsub": 1097,
      "Ġint": 1098,
      "Ġmake": 1099,
      "ax": 1100,
      "æĦ": 1101,
      "åĲİ": 1102,
      "æµ": 1103,
      "hen": 1104,
      "rough": 1105,
      "cre": 1106,
      "div": 1107,
      "Ġsuch": 1108,
      "ield": 1109,
      "èĩª": 1110,
      "set": 1111,
      "Ġpar": 1112,
      "Ġdon": 1113,
      "æĪĲ": 1114,
      "Ġsim": 1115,
      "io": 1116,
      "Ġph": 1117,
      "ood": 1118,
      "Ġ</": 1119,
      "->": 1120,
      "Ġwant": 1121,
      "frac": 1122,
      "ious": 1123,
      "é¢": 1124,
      "åĵ": 1125,
      "èĤ": 1126,
      "è¡Į": 1127,
      "Ġcur": 1128,
      "ĠÐ¾ÑĤ": 1129,
      "ating": 1130,
      "Ġevery": 1131,
      "Ġnow": 1132,
      "çŃ": 1133,
      "Ġcor": 1134,
      "Ġconst": 1135,
      "Ġwell": 1136,
      "æ¬": 1137,
      "åī": 1138,
      "riv": 1139,
      "imes": 1140,
      "arg": 1141,
      "ĠÐ·": 1142,
      "Ġway": 1143,
      "rit": 1144,
      "oy": 1145,
      "rm": 1146,
      "ä»ĸ": 1147,
      "ave": 1148,
      "ä½ľ": 1149,
      "ä¸ļ": 1150,
      "erson": 1151,
      "Ġtrans": 1152,
      "ople": 1153,
      "ues": 1154,
      "ä¸ĭ": 1155,
      "IN": 1156,
      "Ġfunction": 1157,
      "other": 1158,
      "åŃ¦": 1159,
      "çĲ": 1160,
      "Ġsm": 1161,
      "let": 1162,
      "::": 1163,
      "Ġgener": 1164,
      "ren": 1165,
      "Ġafter": 1166,
      "Ġbu": 1167,
      "ures": 1168,
      "æĮ": 1169,
      "ica": 1170,
      "resent": 1171,
      "äºİ": 1172,
      "Ġ@": 1173,
      "Ð¸Ñı": 1174,
      "ower": 1175,
      "éĺ": 1176,
      "ork": 1177,
      "Ġatt": 1178,
      "ution": 1179,
      "ments": 1180,
      "Ġfollow": 1181,
      "self": 1182,
      "Ġnum": 1183,
      "Ġthrough": 1184,
      "',": 1185,
      "åľ°": 1186,
      "eq": 1187,
      "è¿ĩ": 1188,
      "read": 1189,
      "cite": 1190,
      "Ġdata": 1191,
      "Ġdiffere": 1192,
      "Ġ:": 1193,
      "rent": 1194,
      "Ġinter": 1195,
      "ĠÐ¿Ð¾": 1196,
      "Ġsol": 1197,
      "(\"": 1198,
      "ĠÐ¼": 1199,
      "ĠUn": 1200,
      "Ġhel": 1201,
      "Âł": 1202,
      "St": 1203,
      "...": 1204,
      "åŃĲ": 1205,
      "Ġprodu": 1206,
      "Ġgood": 1207,
      "label": 1208,
      "ward": 1209,
      "Ġname": 1210,
      "åģ": 1211,
      "ÑĦ": 1212,
      "ĉĉĉĉ": 1213,
      "ily": 1214,
      "led": 1215,
      "Ġdid": 1216,
      "Ġdoes": 1217,
      "hes": 1218,
      "ract": 1219,
      "quest": 1220,
      "ices": 1221,
      "Ġused": 1222,
      "éĥ½": 1223,
      "Ġdown": 1224,
      "Ġend": 1225,
      "air": 1226,
      "eng": 1227,
      "Ġgreat": 1228,
      "ray": 1229,
      "Ġresult": 1230,
      "ev": 1231,
      "plic": 1232,
      "ins": 1233,
      "Ġlong": 1234,
      "ĠÐ·Ð°": 1235,
      "Ġeven": 1236,
      "atch": 1237,
      "ON": 1238,
      "mathb": 1239,
      "uc": 1240,
      "ife": 1241,
      "ility": 1242,
      "Ġgu": 1243,
      "Ġusing": 1244,
      "Ġpeople": 1245,
      "Ġsame": 1246,
      "Ġels": 1247,
      "åĬ¨": 1248,
      "éģ": 1249,
      "å¥½": 1250,
      "ative": 1251,
      "eta": 1252,
      "fore": 1253,
      "rap": 1254,
      "ting": 1255,
      "ym": 1256,
      "ĠYou": 1257,
      "çİ°": 1258,
      "ident": 1259,
      "ash": 1260,
      "Ġdet": 1261,
      "ool": 1262,
      "æĸ¹": 1263,
      "Ġac": 1264,
      "not": 1265,
      "Ġmuch": 1266,
      "Ġcre": 1267,
      "nce": 1268,
      "ts": 1269,
      "ator": 1270,
      "Ð»Ðµ": 1271,
      "Ġpublic": 1272,
      "ĠIf": 1273,
      "Ġread": 1274,
      "Ġfind": 1275,
      "ars": 1276,
      "Ġserv": 1277,
      "Ġfl": 1278,
      "Ġcap": 1279,
      "arch": 1280,
      "ament": 1281,
      "Ġcall": 1282,
      "Ð²Ðµ": 1283,
      "æ¸": 1284,
      "Ġhere": 1285,
      "val": 1286,
      "çĤ": 1287,
      "ÐºÐ°": 1288,
      "åĪĨ": 1289,
      "ities": 1290,
      "els": 1291,
      "amp": 1292,
      "æ±": 1293,
      "ern": 1294,
      "();": 1295,
      "Ġshow": 1296,
      "Ġhand": 1297,
      "ages": 1298,
      "æ´": 1299,
      "irect": 1300,
      "over": 1301,
      "Ġspec": 1302,
      "Ð»Ð°": 1303,
      "Ġdist": 1304,
      "ince": 1305,
      "èĢĮ": 1306,
      "ew": 1307,
      "ĠAnd": 1308,
      "ÑĤÐ¸": 1309,
      "Ġagain": 1310,
      "Ġext": 1311,
      "å°ı": 1312,
      "Ġmany": 1313,
      "bre": 1314,
      "ml": 1315,
      "col": 1316,
      "Ġsystem": 1317,
      "../": 1318,
      "Ġeach": 1319,
      "é«": 1320,
      "ght": 1321,
      "mer": 1322,
      "Ġbefore": 1323,
      "ç»ı": 1324,
      "Ñī": 1325,
      "Ġloc": 1326,
      "Ġref": 1327,
      "ĠĠĠĠĠĠĠĠĠ": 1328,
      "Ġright": 1329,
      "Ġstart": 1330,
      "é«ĺ": 1331,
      "$.": 1332,
      "era": 1333,
      "ased": 1334,
      "ç«": 1335,
      "å¾Ĺ": 1336,
      "Ã§": 1337,
      "Ġcar": 1338,
      "essage": 1339,
      "Ġinv": 1340,
      "ner": 1341,
      "be": 1342,
      "ined": 1343,
      "Ð´Ð¸": 1344,
      "Ġhelp": 1345,
      "å¿ĥ": 1346,
      "ript": 1347,
      "$,": 1348,
      "Ġmin": 1349,
      "åŁ": 1350,
      "è·": 1351,
      "æĽ": 1352,
      "Ġline": 1353,
      "left": 1354,
      "éķ": 1355,
      "day": 1356,
      "Ġeff": 1357,
      "ever": 1358,
      "éĿ¢": 1359,
      "Ġtra": 1360,
      "da": 1361,
      "ä¾": 1362,
      "ä¹ĭ": 1363,
      "ĠÑģÐµ": 1364,
      "ween": 1365,
      "Ñħ": 1366,
      "ather": 1367,
      "Ġbel": 1368,
      "ier": 1369,
      "è¯´": 1370,
      "ĠCom": 1371,
      "ä½ł": 1372,
      "Ġbecause": 1373,
      "RE": 1374,
      "ement": 1375,
      "Ġx": 1376,
      "Ġown": 1377,
      "Ġthink": 1378,
      "aking": 1379,
      "We": 1380,
      "ç½": 1381,
      "è¿ĺ": 1382,
      "ĠPro": 1383,
      "Ġpol": 1384,
      "It": 1385,
      "çĿ": 1386,
      "olog": 1387,
      "Ð²Ð¾": 1388,
      "atic": 1389,
      "mathcal": 1390,
      "å¼Ģ": 1391,
      "ature": 1392,
      "å·¥": 1393,
      "ho": 1394,
      "Ġinclud": 1395,
      "ĠAl": 1396,
      "AT": 1397,
      "å¤©": 1398,
      "åĢ": 1399,
      "ead": 1400,
      "Ġmade": 1401,
      "å®ŀ": 1402,
      "tt": 1403,
      "æĸ°": 1404,
      "ms": 1405,
      "Ġstr": 1406,
      "pend": 1407,
      "Ġche": 1408,
      "Ġrun": 1409,
      "åĬĽ": 1410,
      "way": 1411,
      ",\\": 1412,
      "Ġaut": 1413,
      "man": 1414,
      "å¦Ĥ": 1415,
      "cond": 1416,
      "})": 1417,
      "ĠĠĠĠĠĠ": 1418,
      "oid": 1419,
      "Ġpoint": 1420,
      "ider": 1421,
      "ute": 1422,
      "Ġfr": 1423,
      "}.": 1424,
      "la": 1425,
      "Ġgiv": 1426,
      "ton": 1427,
      "ale": 1428,
      "åħ¬": 1429,
      "tain": 1430,
      "ery": 1431,
      "Pro": 1432,
      "ruct": 1433,
      "ST": 1434,
      "Ġbeing": 1435,
      "ittle": 1436,
      "Ġvalue": 1437,
      "====": 1438,
      "Ġbetween": 1439,
      "ank": 1440,
      "equation": 1441,
      "__": 1442,
      "æľĢ": 1443,
      "ĠX": 1444,
      "ci": 1445,
      "åħ¨": 1446,
      "Ġrep": 1447,
      "Ġdifferent": 1448,
      "Ġtype": 1449,
      "ĠÃ©": 1450,
      "ines": 1451,
      "Ġpass": 1452,
      "ants": 1453,
      "å¾Ī": 1454,
      "ç¾": 1455,
      "å¸Ĥ": 1456,
      "ĠĠĠĠĠĠĠĠĠĠĠĠĠĠĠĠĠĠĠ": 1457,
      "Ġdec": 1458,
      "è¿Ľ": 1459,
      "Ġcase": 1460,
      "Ġhigh": 1461,
      "Ġthose": 1462,
      "Ġmon": 1463,
      "Ġfam": 1464,
      "ness": 1465,
      "ots": 1466,
      "for": 1467,
      "Ġed": 1468,
      "tring": 1469,
      "Ġfil": 1470,
      "è¶": 1471,
      "Ġsign": 1472,
      "ĠEl": 1473,
      "ĠBut": 1474,
      "iqu": 1475,
      "ric": 1476,
      "Ġwhile": 1477,
      "Ġexper": 1478,
      "æĹ¥": 1479,
      "pon": 1480,
      "Ġsay": 1481,
      "åīį": 1482,
      "press": 1483,
      "ctions": 1484,
      "formation": 1485,
      "roup": 1486,
      "Ġinte": 1487,
      "ÑĬÑĢ": 1488,
      "ç®": 1489,
      "Ġav": 1490,
      "Ġperson": 1491,
      "Ġday": 1492,
      "Ġ||": 1493,
      "ĠFor": 1494,
      "Ex": 1495,
      "çĲĨ": 1496,
      "Ġvari": 1497,
      "ethod": 1498,
      "Ġdi": 1499,
      "ually": 1500,
      "Ġ#": 1501,
      "ames": 1502,
      "Ġfound": 1503,
      "('": 1504,
      "éĥ": 1505,
      "å®ļ": 1506,
      "åĲĮ": 1507,
      "ample": 1508,
      "))": 1509,
      "Ð¼Ð°": 1510,
      "æ³ķ": 1511,
      "****": 1512,
      "me": 1513,
      "ä½ĵ": 1514,
      "til": 1515,
      "ouse": 1516,
      "Ġequ": 1517,
      "Ġstud": 1518,
      "dd": 1519,
      "Ġproble": 1520,
      "min": 1521,
      "ç¬": 1522,
      "vent": 1523,
      "ces": 1524,
      "Ġlist": 1525,
      "çŁ": 1526,
      "Ġsom": 1527,
      "æĻ": 1528,
      "Ġtake": 1529,
      "AR": 1530,
      "name": 1531,
      "è½¦": 1532,
      "Con": 1533,
      "Ġmust": 1534,
      "here": 1535,
      "ited": 1536,
      "çŃī": 1537,
      "Ġplay": 1538,
      "}(": 1539,
      "çľĭ": 1540,
      "çĦ": 1541,
      "è°": 1542,
      "LE": 1543,
      "ody": 1544,
      "Ð»Ð¾": 1545,
      "rest": 1546,
      "Ġind": 1547,
      "Ġposs": 1548,
      "span": 1549,
      "ets": 1550,
      "ĠQ": 1551,
      "Ġhav": 1552,
      "und": 1553,
      "uring": 1554,
      "Ġyears": 1555,
      "æīĢ": 1556,
      "åħ¶": 1557,
      "def": 1558,
      "Ð´Ð°": 1559,
      "itat": 1560,
      "}^": 1561,
      "Ġlast": 1562,
      "Ġchar": 1563,
      "Ġinstall": 1564,
      "Ġrequ": 1565,
      "iness": 1566,
      "This": 1567,
      "less": 1568,
      "land": 1569,
      "é£": 1570,
      "this": 1571,
      "Ġboth": 1572,
      "}_": 1573,
      "ought": 1574,
      "></": 1575,
      "ĠAr": 1576,
      "pre": 1577,
      "Ġsur": 1578,
      "Ð¸ÑĤÐµ": 1579,
      "Ġbr": 1580,
      "Ġerr": 1581,
      "~\\": 1582,
      "untu": 1583,
      "Ġmat": 1584,
      "Ġlittle": 1585,
      "aut": 1586,
      "ional": 1587,
      "sub": 1588,
      "çĤ¹": 1589,
      "Ġreal": 1590,
      "gan": 1591,
      "Ġstill": 1592,
      "Ġ--": 1593,
      "ired": 1594,
      "ument": 1595,
      "inal": 1596,
      "work": 1597,
      "cent": 1598,
      "ense": 1599,
      "éķ¿": 1600,
      "åĿ": 1601,
      "ced": 1602,
      "Ð½Ðµ": 1603,
      "Ġnumber": 1604,
      "èĢħ": 1605,
      "ves": 1606,
      "cept": 1607,
      "Ġbest": 1608,
      "äºĭ": 1609,
      "Ġrest": 1610,
      "><": 1611,
      "Ãº": 1612,
      "idth": 1613,
      "ized": 1614,
      "ä¸Ģä¸ª": 1615,
      "indow": 1616,
      "Ġbus": 1617,
      "éĤ": 1618,
      "ÑĪ": 1619,
      "ä¸İ": 1620,
      "æı": 1621,
      "alk": 1622,
      "Ġdels": 1623,
      "://": 1624,
      "ational": 1625,
      "æľº": 1626,
      "pha": 1627,
      "ĠÐ¡": 1628,
      "part": 1629,
      "æĥħ": 1630,
      "ply": 1631,
      "Ġlet": 1632,
      "åĲĪ": 1633,
      "ee": 1634,
      "Ġinf": 1635,
      "ÑĩÐµ": 1636,
      "ava": 1637,
      "Ġmem": 1638,
      "Ġterm": 1639,
      "ĠAn": 1640,
      "æľ¬": 1641,
      "ÐºÐ¾": 1642,
      "irc": 1643,
      "èĬ": 1644,
      "bl": 1645,
      "äº§": 1646,
      "Ġ*/": 1647,
      "Ġcurrent": 1648,
      "çĿĢ": 1649,
      "gram": 1650,
      "co": 1651,
      "br": 1652,
      "Ġtoo": 1653,
      "çĦ¶": 1654,
      "Ã¡": 1655,
      "Ġgl": 1656,
      "Ġvol": 1657,
      "éĹ´": 1658,
      "ä¸»": 1659,
      "éĽ": 1660,
      "Ġwr": 1661,
      "èī": 1662,
      "ason": 1663,
      "æľĪ": 1664,
      "Ġpartic": 1665,
      "Ġimport": 1666,
      "Ġmight": 1667,
      "arn": 1668,
      "æį": 1669,
      "Ġins": 1670,
      "æ²¡": 1671,
      "é¡": 1672,
      "Ġwithout": 1673,
      "ared": 1674,
      "ault": 1675,
      "Ġvis": 1676,
      "Ġz": 1677,
      "å½ĵ": 1678,
      "##": 1679,
      "éĩĮ": 1680,
      "Â·": 1681,
      "Ġtry": 1682,
      "æ¶": 1683,
      "bar": 1684,
      "å§": 1685,
      "ote": 1686,
      "éĥ¨": 1687,
      "éļ": 1688,
      "ĠLa": 1689,
      "Ġcount": 1690,
      "Ġtem": 1691,
      "ĠÐ¿ÑĢÐµ": 1692,
      "ways": 1693,
      "alpha": 1694,
      "ina": 1695,
      "Ð³Ð°": 1696,
      "ades": 1697,
      "OR": 1698,
      "Ġprocess": 1699,
      "åľº": 1700,
      "tic": 1701,
      "pec": 1702,
      "åĬł": 1703,
      "Com": 1704,
      "ä½Ĩ": 1705,
      "ĠÐ±": 1706,
      "çĪ": 1707,
      "aj": 1708,
      "ser": 1709,
      "Ġll": 1710,
      "Ġele": 1711,
      "Ġold": 1712,
      "Ġdirect": 1713,
      "Ġfact": 1714,
      "velop": 1715,
      "ten": 1716,
      "ters": 1717,
      "rop": 1718,
      "Ġhome": 1719,
      "ä¹Ī": 1720,
      "Ġopen": 1721,
      "ven": 1722,
      "Ġve": 1723,
      "ĠHow": 1724,
      "ĠĠĠĠĠĠĠĠĠĠĠĠĠĠĠĠĠĠĠĠĠĠĠĠĠĠĠĠĠĠĠĠ": 1725,
      "ÑĨÐ¸": 1726,
      "Ġtest": 1727,
      "Ġlife": 1728,
      "æĢ§": 1729,
      "ç¨": 1730,
      "åĽł": 1731,
      "ĠÐºÐ¾": 1732,
      "ĠAs": 1733,
      "Ġword": 1734,
      "åĮĸ": 1735,
      "Ġappro": 1736,
      "éĩį": 1737,
      "ext": 1738,
      "ething": 1739,
      "EN": 1740,
      "åĵģ": 1741,
      "td": 1742,
      "Ġmen": 1743,
      "Name": 1744,
      "ann": 1745,
      "Ġmed": 1746,
      "ished": 1747,
      "åħ³": 1748,
      "Ġcle": 1749,
      "AL": 1750,
      "Ġseem": 1751,
      "orn": 1752,
      "oci": 1753,
      "rol": 1754,
      "ç¤": 1755,
      "ience": 1756,
      "Ġinformation": 1757,
      "az": 1758,
      "éģĵ": 1759,
      "Ġsmall": 1760,
      "Ġfile": 1761,
      "èµ·": 1762,
      "Ġdisc": 1763,
      ")\\": 1764,
      "ior": 1765,
      "ried": 1766,
      "Ġpost": 1767,
      "ross": 1768,
      "æ¯Ķ": 1769,
      "add": 1770,
      "erg": 1771,
      "ases": 1772,
      "arm": 1773,
      "au": 1774,
      "riend": 1775,
      "load": 1776,
      "èģ": 1777,
      "akes": 1778,
      "oot": 1779,
      "):": 1780,
      "ved": 1781,
      "Ġdesc": 1782,
      "ĠSh": 1783,
      "inc": 1784,
      "åĨħ": 1785,
      "bs": 1786,
      "yp": 1787,
      "html": 1788,
      "inu": 1789,
      "ĉĉĉ": 1790,
      "Ġself": 1791,
      "thing": 1792,
      "Ġcent": 1793,
      "mod": 1794,
      "ek": 1795,
      "Ġquest": 1796,
      ".,": 1797,
      "va": 1798,
      "Ġcour": 1799,
      "ç§į": 1800,
      "æĽ´": 1801,
      "elta": 1802,
      "alse": 1803,
      "pi": 1804,
      "sum": 1805,
      "ambda": 1806,
      "ID": 1807,
      "Ġconf": 1808,
      "arc": 1809,
      "Ġplace": 1810,
      "../../": 1811,
      "ives": 1812,
      "éĢļ": 1813,
      "ustom": 1814,
      "ides": 1815,
      "éĶ": 1816,
      "gg": 1817,
      "æĪĳä»¬": 1818,
      "Ġra": 1819,
      "lease": 1820,
      "Ġdesign": 1821,
      "ware": 1822,
      "Ġpower": 1823,
      "ĠCon": 1824,
      "åº¦": 1825,
      "Ġproper": 1826,
      "åİ»": 1827,
      "Ġpresent": 1828,
      "view": 1829,
      "æŀľ": 1830,
      "ĠÐ°": 1831,
      "nect": 1832,
      "ĠÐŁ": 1833,
      "Id": 1834,
      "Ġorder": 1835,
      "å»": 1836,
      "new": 1837,
      "Ġeas": 1838,
      "trans": 1839,
      "Ġhapp": 1840,
      "å·±": 1841,
      "Ġcr": 1842,
      "Ġworld": 1843,
      "rem": 1844,
      "Ð²Ð¸": 1845,
      "ĉ}": 1846,
      "If": 1847,
      "å°Ĩ": 1848,
      "ç©": 1849,
      "æ°´": 1850,
      "atur": 1851,
      "çĻ": 1852,
      "Ġthree": 1853,
      "æĹł": 1854,
      "Ġsupport": 1855,
      "ivers": 1856,
      "ç¾İ": 1857,
      "ĠFr": 1858,
      "arge": 1859,
      "Ġfew": 1860,
      "ĠCl": 1861,
      "$\\": 1862,
      "ertain": 1863,
      "Ġsecond": 1864,
      "Ġcome": 1865,
      "Ġnever": 1866,
      "Ġchild": 1867,
      "ccess": 1868,
      "Ġtop": 1869,
      "cur": 1870,
      "amma": 1871,
      "Ġgoing": 1872,
      "éĤ£": 1873,
      "Ġsomething": 1874,
      "æŁ": 1875,
      "åı¯ä»¥": 1876,
      "El": 1877,
      "apt": 1878,
      "Ġ>": 1879,
      "SE": 1880,
      "umn": 1881,
      "lation": 1882,
      "ered": 1883,
      "Ġoper": 1884,
      "uss": 1885,
      "alth": 1886,
      "amet": 1887,
      "back": 1888,
      "èĩªå·±": 1889,
      "var": 1890,
      "å¢": 1891,
      "arly": 1892,
      "Ġfollowing": 1893,
      "Ġide": 1894,
      "åħ¥": 1895,
      "vert": 1896,
      "Ġbre": 1897,
      "To": 1898,
      "version": 1899,
      "ped": 1900,
      "import": 1901,
      "ality": 1902,
      "å¸¸": 1903,
      "ify": 1904,
      "ici": 1905,
      "Ġsl": 1906,
      "æīĭ": 1907,
      "Ġet": 1908,
      "åĮº": 1909,
      "ream": 1910,
      "raph": 1911,
      "æł·": 1912,
      "Ġanother": 1913,
      "_\\": 1914,
      "source": 1915,
      "Ġdev": 1916,
      "Ġhead": 1917,
      "ency": 1918,
      "Ġ\\\\": 1919,
      "çķ": 1920,
      "Ġreally": 1921,
      "esc": 1922,
      "ik": 1923,
      "Ġhref": 1924,
      "Ch": 1925,
      "ĠRe": 1926,
      "Ġtrue": 1927,
      "=\\": 1928,
      "Ġprof": 1929,
      "æĸĩ": 1930,
      "Type": 1931,
      "æģ": 1932,
      "Ġsk": 1933,
      "ists": 1934,
      "å¤ĸ": 1935,
      "æ¬¡": 1936,
      "ä¸ī": 1937,
      "ä½į": 1938,
      "reg": 1939,
      "itor": 1940,
      "Ġeffect": 1941,
      "ç³": 1942,
      "Ġproduct": 1943,
      "yn": 1944,
      "AN": 1945,
      "mu": 1946,
      "Ġturn": 1947,
      "çĹ": 1948,
      "æĦı": 1949,
      "éħ": 1950,
      "Ġopt": 1951,
      "Ð´Ðµ": 1952,
      "Ġpur": 1953,
      "è¢": 1954,
      "ĠThey": 1955,
      "by": 1956,
      "Ġput": 1957,
      "Ġalways": 1958,
      "äºĽ": 1959,
      "ÑģÐºÐ¸": 1960,
      "wh": 1961,
      "Ġsince": 1962,
      "æĺİ": 1963,
      "éľ": 1964,
      "çĸ": 1965,
      "reen": 1966,
      "?\"": 1967,
      "éĩı": 1968,
      "Ġmain": 1969,
      "ä»İ": 1970,
      "Ġsw": 1971,
      "âĢĶ": 1972,
      "ott": 1973,
      "ger": 1974,
      "çĽ¸": 1975,
      "Ar": 1976,
      "Ġstate": 1977,
      "âĢŀ": 1978,
      "Ġelse": 1979,
      "comm": 1980,
      "ĠZ": 1981,
      "ĠSe": 1982,
      "Ġaround": 1983,
      "ask": 1984,
      "Ġid": 1985,
      "Ġinde": 1986,
      "ĠDe": 1987,
      "For": 1988,
      "att": 1989,
      "son": 1990,
      "arent": 1991,
      "Cl": 1992,
      "Ð½Ð¸Ñı": 1993,
      "date": 1994,
      "Ġmark": 1995,
      "èº": 1996,
      "Ġ=>": 1997,
      "por": 1998,
      "chool": 1999,
      "ï¼Ľ": 2000,
      "ism": 2001,
      "æıĲ": 2002,
      "mathbb": 2003,
      "sw": 2004,
      "ining": 2005,
      "ĠNew": 2006,
      "message": 2007,
      "ien": 2008,
      "Ġallow": 2009,
      "yle": 2010,
      "Ġmet": 2011,
      "Ġthings": 2012,
      "item": 2013,
      "itz": 2014,
      "----------------": 2015,
      "String": 2016,
      "str": 2017,
      "Ġbetter": 2018,
      "Ġmodel": 2019,
      "stand": 2020,
      "Ġfield": 2021,
      "æĥ³": 2022,
      "Ġlead": 2023,
      "ole": 2024,
      "ope": 2025,
      "med": 2026,
      "chn": 2027,
      "Ġgiven": 2028,
      "Al": 2029,
      "Ġ`": 2030,
      "roll": 2031,
      "ering": 2032,
      "Ġadv": 2033,
      "log": 2034,
      "ization": 2035,
      "raw": 2036,
      "ç¬¬": 2037,
      "igma": 2038,
      "Ġstand": 2039,
      "Ġcond": 2040,
      "}_{": 2041,
      "ified": 2042,
      "Ġprogram": 2043,
      "Ð¼Ðµ": 2044,
      "æľŁ": 2045,
      "Ġdevelop": 2046,
      "play": 2047,
      "ength": 2048,
      "Ġsure": 2049,
      "èĲ": 2050,
      "Ġ,": 2051,
      "Ġmethod": 2052,
      "èµĦ": 2053,
      "You": 2054,
      "loc": 2055,
      "}^{": 2056,
      "eps": 2057,
      "èĥ": 2058,
      "Ġmean": 2059,
      "Ġseg": 2060,
      "Ġtot": 2061,
      "Ġcare": 2062,
      "ah": 2063,
      "ither": 2064,
      "Ġupon": 2065,
      "Ġproblem": 2066,
      "ä¿Ŀ": 2067,
      "Ġvan": 2068,
      "Ġpat": 2069,
      "Ġpres": 2070,
      "ĠThere": 2071,
      "çĥ": 2072,
      "ĠÐļ": 2073,
      "Ġhard": 2074,
      "omen": 2075,
      "Res": 2076,
      "ception": 2077,
      "ĠEx": 2078,
      "oss": 2079,
      "CT": 2080,
      "Ġ!": 2081,
      "åºĶ": 2082,
      "Ð¿Ð¾": 2083,
      "èĭ": 2084,
      "cul": 2085,
      "ĠSo": 2086,
      "ĠÐ¸Ð·": 2087,
      "Ġask": 2088,
      "åģļ": 2089,
      "ç¥": 2090,
      "Ġsing": 2091,
      "ĉ\\": 2092,
      "ç²": 2093,
      "Ġfree": 2094,
      "ule": 2095,
      "serv": 2096,
      "Ġsit": 2097,
      "ral": 2098,
      "oh": 2099,
      "Ġappe": 2100,
      "èĦ": 2101,
      "Ġgive": 2102,
      "ential": 2103,
      "æ´»": 2104,
      "Ġbusiness": 2105,
      "çĶµ": 2106,
      "ailable": 2107,
      "èº«": 2108,
      "ital": 2109,
      "cont": 2110,
      "Ġperform": 2111,
      "Ġnext": 2112,
      "éĴ": 2113,
      "ron": 2114,
      "Ġwon": 2115,
      "Ġleft": 2116,
      "IT": 2117,
      "ctor": 2118,
      "hor": 2119,
      "-\\": 2120,
      "code": 2121,
      "htt": 2122,
      "Ġlog": 2123,
      "As": 2124,
      "è®©": 2125,
      "Ġlove": 2126,
      "Ġprim": 2127,
      "ĠIs": 2128,
      "ately": 2129,
      "ĠShe": 2130,
      "Ġkey": 2131,
      "å±ķ": 2132,
      "æŃ¤": 2133,
      "ria": 2134,
      "Ġbook": 2135,
      "return": 2136,
      "ively": 2137,
      "Ġfriend": 2138,
      "che": 2139,
      "æĦŁ": 2140,
      "åıª": 2141,
      "ĠTr": 2142,
      "Ġsent": 2143,
      "Ġexpl": 2144,
      "å¹³": 2145,
      "Ġten": 2146,
      "Ð¼Ð¸": 2147,
      "ele": 2148,
      "Ġgot": 2149,
      "type": 2150,
      "uff": 2151,
      "ook": 2152,
      "å¹¶": 2153,
      "çĽ®": 2154,
      "ane": 2155,
      "Ġlight": 2156,
      "éĩĳ": 2157,
      "ĠTo": 2158,
      "Ġobject": 2159,
      "ï¼ģ": 2160,
      "SS": 2161,
      "Ġexpect": 2162,
      "ateg": 2163,
      "bol": 2164,
      "aster": 2165,
      "å»º": 2166,
      "org": 2167,
      "çī©": 2168,
      "åĸ": 2169,
      "Ġnon": 2170,
      "itions": 2171,
      "bf": 2172,
      "Ġiss": 2173,
      "ache": 2174,
      "Ġcou": 2175,
      "width": 2176,
      "align": 2177,
      "åķ": 2178,
      "ey": 2179,
      "ĠWh": 2180,
      "ush": 2181,
      "rivate": 2182,
      "Ġcal": 2183,
      "Val": 2184,
      "çģ": 2185,
      "class": 2186,
      "æ·": 2187,
      "ably": 2188,
      "Ġerror": 2189,
      "Ġinterest": 2190,
      "^{\\": 2191,
      "Ġcomple": 2192,
      "æ°ĳ": 2193,
      "Ġcho": 2194,
      "ĠMr": 2195,
      "phi": 2196,
      "åĬ¡": 2197,
      "Ġpossible": 2198,
      "section": 2199,
      "aps": 2200,
      "Ġfull": 2201,
      "mathbf": 2202,
      "Ġexample": 2203,
      "itle": 2204,
      "é©": 2205,
      "æŃ£": 2206,
      "åıĬ": 2207,
      "ains": 2208,
      "è¢«": 2209,
      "æ²¡æľī": 2210,
      "Ġmar": 2211,
      "met": 2212,
      "Ġfeel": 2213,
      "ç´": 2214,
      "Ġthought": 2215,
      "è¡¨": 2216,
      "åĲį": 2217,
      "ç±": 2218,
      "An": 2219,
      "å®ī": 2220,
      "fe": 2221,
      "/>": 2222,
      "hip": 2223,
      "ï¼Ł": 2224,
      "Ġconsider": 2225,
      "lish": 2226,
      "ety": 2227,
      "ries": 2228,
      "lambda": 2229,
      "èĪ": 2230,
      "ically": 2231,
      "Ref": 2232,
      "Ġcorre": 2233,
      "ĠÐľ": 2234,
      "Ġdat": 2235,
      "bers": 2236,
      "ling": 2237,
      "Ġ)": 2238,
      "ĠCol": 2239,
      "Ġkeep": 2240,
      "Ġmult": 2241,
      "erence": 2242,
      "where": 2243,
      "erc": 2244,
      "Ġincre": 2245,
      "Ġless": 2246,
      "ncia": 2247,
      "opt": 2248,
      "Ġable": 2249,
      "ĠÑģÑĬ": 2250,
      "Ġvar": 2251,
      "Ġseu": 2252,
      "cd": 2253,
      "ww": 2254,
      "List": 2255,
      "RO": 2256,
      "Ġdri": 2257,
      "Ġlevel": 2258,
      "Ġport": 2259,
      "ume": 2260,
      "ĠÐĳ": 2261,
      "Ġchange": 2262,
      "è®¾": 2263,
      "é¦": 2264,
      "aces": 2265,
      "æķ°": 2266,
      "net": 2267,
      "aw": 2268,
      "ided": 2269,
      "Ġrece": 2270,
      "ances": 2271,
      "çł": 2272,
      "inter": 2273,
      "ently": 2274,
      "Ġbro": 2275,
      "åĳĺ": 2276,
      "ift": 2277,
      "åĪ¶": 2278,
      "En": 2279,
      "And": 2280,
      "rist": 2281,
      "arget": 2282,
      "box": 2283,
      "ability": 2284,
      "ĠÐĴ": 2285,
      "face": 2286,
      "top": 2287,
      "ç¼": 2288,
      "æ¡": 2289,
      "param": 2290,
      "den": 2291,
      "ĠEng": 2292,
      "ĠPl": 2293,
      "ida": 2294,
      "Ġcost": 2295,
      "with": 2296,
      "Ġbuild": 2297,
      "ED": 2298,
      "Ġnet": 2299,
      "unic": 2300,
      "Ġlocal": 2301,
      "Ġaway": 2302,
      "rr": 2303,
      "go": 2304,
      "ÑģÐºÐ°": 2305,
      "ana": 2306,
      "ÐºÐ¸": 2307,
      "èĢģ": 2308,
      "Ġproject": 2309,
      "å·²": 2310,
      "ĠÐºÐ°": 2311,
      "Ġstat": 2312,
      "util": 2313,
      "ä¸¤": 2314,
      "fo": 2315,
      "ember": 2316,
      "Ġlarge": 2317,
      "Ġ==": 2318,
      "ä¿¡": 2319,
      "Ġduring": 2320,
      "mon": 2321,
      "æĪĸ": 2322,
      "ention": 2323,
      "Ġavailable": 2324,
      "åĪ©": 2325,
      "Ġocc": 2326,
      "Ġpo": 2327,
      "Ġfinal": 2328,
      "Ġlim": 2329,
      "Ġabove": 2330,
      "Ñİ": 2331,
      "ision": 2332,
      "Ġtre": 2333,
      "ĠInd": 2334,
      "Ġcirc": 2335,
      "Ġmom": 2336,
      "èį": 2337,
      "Ġenc": 2338,
      "Ġ{\\": 2339,
      "figure": 2340,
      "Ġcheck": 2341,
      "ology": 2342,
      "Ġview": 2343,
      "Ġpot": 2344,
      "ised": 2345,
      "acter": 2346,
      "çŁ¥": 2347,
      "Ð³Ð¾": 2348,
      "ived": 2349,
      "ado": 2350,
      "ÑĩÐ°": 2351,
      "çī¹": 2352,
      "ĠEn": 2353,
      "Ġwater": 2354,
      "use": 2355,
      "ready": 2356,
      "AM": 2357,
      "ÑĬÐ»": 2358,
      "åħĥ": 2359,
      "ĠAp": 2360,
      "Ġnull": 2361,
      "alt": 2362,
      "æ°Ķ": 2363,
      "Ġchang": 2364,
      "asure": 2365,
      "ĠNo": 2366,
      "Ġfar": 2367,
      "Ġdone": 2368,
      "LL": 2369,
      "ç³»": 2370,
      "ission": 2371,
      "ĠĠĠĠĠĠĠĠĠĠĠĠĠ": 2372,
      "Ġcame": 2373,
      "\"/>": 2374,
      "Ġimportant": 2375,
      "Ġtable": 2376,
      "most": 2377,
      "å¥³": 2378,
      "ables": 2379,
      "ird": 2380,
      "but": 2381,
      "unity": 2382,
      "Ġwithin": 2383,
      "Ġapplic": 2384,
      "Ġcustom": 2385,
      "ilon": 2386,
      "Ġside": 2387,
      "Ġbeh": 2388,
      "ç¡": 2389,
      "Ġpack": 2390,
      "ocument": 2391,
      "head": 2392,
      "Ġaff": 2393,
      "fun": 2394,
      "But": 2395,
      "ges": 2396,
      "vious": 2397,
      "Ð½Ð¸Ðµ": 2398,
      "å°±æĺ¯": 2399,
      "ĠÑĦ": 2400,
      "Ġgeneral": 2401,
      "ails": 2402,
      "Ð¾ÑĢ": 2403,
      "ä»£": 2404,
      "angle": 2405,
      "å£": 2406,
      "Ġdr": 2407,
      "Ġsize": 2408,
      "Ġprob": 2409,
      "Ġtell": 2410,
      "dis": 2411,
      "è·¯": 2412,
      "ç®¡": 2413,
      "ĠGr": 2414,
      "iment": 2415,
      "lection": 2416,
      "uit": 2417,
      "Ġservice": 2418,
      "æķĻ": 2419,
      "ona": 2420,
      "Ġthing": 2421,
      "Ð¾Ð½": 2422,
      "Ġinc": 2423,
      "Ġcalled": 2424,
      "Ġorig": 2425,
      "ĠOn": 2426,
      "ga": 2427,
      "ĠAll": 2428,
      "Ġhum": 2429,
      "ET": 2430,
      "ait": 2431,
      "Ġtext": 2432,
      "ç½ĳ": 2433,
      "Ġnom": 2434,
      "ncies": 2435,
      "aper": 2436,
      "Ġmov": 2437,
      "Ġver": 2438,
      "ager": 2439,
      "uck": 2440,
      "ç»Ļ": 2441,
      "Cont": 2442,
      "ours": 2443,
      "ĠÑĥ": 2444,
      "Ġpop": 2445,
      "ĠÐ´Ð°": 2446,
      "Ġkind": 2447,
      "ĠÑĢÐ°": 2448,
      "Ġplan": 2449,
      "He": 2450,
      "Ġthough": 2451,
      "Ġhist": 2452,
      "Ġapp": 2453,
      "Ġseva": 2454,
      "ÐµÑĢ": 2455,
      "Ġmeans": 2456,
      "Ġconnect": 2457,
      "key": 2458,
      "data": 2459,
      "Ġart": 2460,
      "ĠWhat": 2461,
      "Ġaccess": 2462,
      "Ġintern": 2463,
      "ãĢĭ": 2464,
      "\")": 2465,
      "atal": 2466,
      "ially": 2467,
      "éĹ®": 2468,
      "ãĢĬ": 2469,
      "no": 2470,
      "ieve": 2471,
      "Ġresults": 2472,
      "ĠWhen": 2473,
      "åı¸": 2474,
      "é¢ĺ": 2475,
      "å¼ı": 2476,
      "è§£": 2477,
      "duct": 2478,
      "Ġlib": 2479,
      "\\\\": 2480,
      "Ġagainst": 2481,
      "Ġanal": 2482,
      "Ġmonth": 2483,
      "fect": 2484,
      "ribut": 2485,
      "Ġtechn": 2486,
      "Tr": 2487,
      "Ġey": 2488,
      "ĠOr": 2489,
      "na": 2490,
      "._": 2491,
      "array": 2492,
      "ä¸ŃåĽ½": 2493,
      "âĢ¦": 2494,
      "Ġlow": 2495,
      "beta": 2496,
      "Ġhaving": 2497,
      "æ»": 2498,
      "pose": 2499,
      "Ġfre": 2500,
      "atter": 2501,
      "list": 2502,
      "Ġvoid": 2503,
      "Ġbas": 2504,
      "Ġprom": 2505,
      "ĠÐĲ": 2506,
      "Ġdays": 2507,
      "Ġreport": 2508,
      "æīĵ": 2509,
      "åĪ«": 2510,
      "sigma": 2511,
      "Ġquestion": 2512,
      "aven": 2513,
      "DE": 2514,
      "itive": 2515,
      "Ġspace": 2516,
      "Ġdepend": 2517,
      "ploy": 2518,
      "')": 2519,
      "alf": 2520,
      "}{\\": 2521,
      "translation": 2522,
      "oney": 2523,
      "å¼º": 2524,
      "Ġcommand": 2525,
      "Ġfalse": 2526,
      "Ġenough": 2527,
      "äº¤": 2528,
      "ponse": 2529,
      "Ġprote": 2530,
      "buntu": 2531,
      "ĠĠĠĠĠĠĠĠĠĠĠĠĠĠĠĠĠĠĠĠĠĠĠ": 2532,
      "gl": 2533,
      "ä»·": 2534,
      "è®¡": 2535,
      "Ġevent": 2536,
      "vern": 2537,
      "!\"": 2538,
      "px": 2539,
      "éª": 2540,
      "éĵ": 2541,
      "IC": 2542,
      "ister": 2543,
      "å°ĳ": 2544,
      "ĠMar": 2545,
      "ret": 2546,
      "äºĮ": 2547,
      "II": 2548,
      "Ġ(\\": 2549,
      "ards": 2550,
      "çº¿": 2551,
      "Ð·Ð¸": 2552,
      "åŀ": 2553,
      "Ġgrow": 2554,
      "Ġsum": 2555,
      "ç¦": 2556,
      "Ġteam": 2557,
      "Ġhouse": 2558,
      "pm": 2559,
      "æĤ": 2560,
      "Ġonce": 2561,
      "Ġweek": 2562,
      "Ġroom": 2563,
      "Ġrepresent": 2564,
      "roid": 2565,
      "è£": 2566,
      "Ġbig": 2567,
      "iron": 2568,
      "Ġcertain": 2569,
      "ape": 2570,
      "Ġalready": 2571,
      "ĠÐ³Ð¾": 2572,
      "that": 2573,
      "ç¨ĭ": 2574,
      "ĠSp": 2575,
      "^{-": 2576,
      "Ġshort": 2577,
      "ä¸ĩ": 2578,
      "Ġunderstand": 2579,
      "ler": 2580,
      "ä½¿": 2581,
      "lu": 2582,
      "ination": 2583,
      "bt": 2584,
      "ĠAmer": 2585,
      "includ": 2586,
      "irt": 2587,
      "é»": 2588,
      "ples": 2589,
      "Ġparticular": 2590,
      "mathrm": 2591,
      "Ġgroup": 2592,
      "pond": 2593,
      "AC": 2594,
      "itional": 2595,
      "action": 2596,
      "iles": 2597,
      "ĉ<": 2598,
      "my": 2599,
      "\");": 2600,
      "å¥¹": 2601,
      "Ġtimes": 2602,
      "Ġlot": 2603,
      "Ġorgan": 2604,
      "ium": 2605,
      "Ġcreate": 2606,
      "Ġcompany": 2607,
      "ĠThat": 2608,
      "ĠPr": 2609,
      "ĠAd": 2610,
      "åıĹ": 2611,
      "string": 2612,
      "æİ¥": 2613,
      "èī²": 2614,
      "åİŁ": 2615,
      "ĠUS": 2616,
      "Ġfamily": 2617,
      "Ġyet": 2618,
      "rc": 2619,
      "Col": 2620,
      "ession": 2621,
      "Ġpay": 2622,
      "ended": 2623,
      "Ġgame": 2624,
      "ÑĢÑĥ": 2625,
      "indows": 2626,
      "Ġversion": 2627,
      "èĻ": 2628,
      "Ġcourse": 2629,
      "Ġmus": 2630,
      "Ġexc": 2631,
      "ground": 2632,
      "ilar": 2633,
      "æĮģ": 2634,
      "af": 2635,
      "Ġsuccess": 2636,
      "Ġben": 2637,
      "Ð½Ð°ÑĤÐ°": 2638,
      "Ġexist": 2639,
      "What": 2640,
      "+\\": 2641,
      "Ġret": 2642,
      "Ġwhy": 2643,
      "Ġu": 2644,
      "Ġuntil": 2645,
      "Ġmor": 2646,
      "Ġever": 2647,
      "sq": 2648,
      "outh": 2649,
      "Ġrespect": 2650,
      "itch": 2651,
      "*}": 2652,
      "Ġnight": 2653,
      "Ġaccount": 2654,
      "å¤´": 2655,
      "é£İ": 2656,
      "åĲĳ": 2657,
      "ĠPh": 2658,
      "Ġsat": 2659,
      "æĶ¾": 2660,
      "umber": 2661,
      "Ġstring": 2662,
      "script": 2663,
      "çľŁ": 2664,
      "ox": 2665,
      "åįģ": 2666,
      "æį®": 2667,
      "Ð°ÑĢ": 2668,
      "Ġelect": 2669,
      "ador": 2670,
      "opy": 2671,
      "åĽŀ": 2672,
      "ĠLe": 2673,
      "Ġwent": 2674,
      "********": 2675,
      "ription": 2676,
      "Ġuser": 2677,
      "iter": 2678,
      "Ġfore": 2679,
      "]{": 2680,
      "å·¥ä½ľ": 2681,
      "ĠMy": 2682,
      "Ġbit": 2683,
      "çĽ´": 2684,
      "Ġfour": 2685,
      "ç»ĵ": 2686,
      "word": 2687,
      "========": 2688,
      "Ġcontrol": 2689,
      "æ¯ı": 2690,
      "ius": 2691,
      "ero": 2692,
      "aken": 2693,
      "istr": 2694,
      "Ġworking": 2695,
      "Ġschool": 2696,
      "èĩ³": 2697,
      "Ġbeg": 2698,
      "æľį": 2699,
      "åıĺ": 2700,
      "åŁº": 2701,
      "å¤Ħ": 2702,
      "Ġtyp": 2703,
      "Ġmot": 2704,
      "gamma": 2705,
      "ĠÂ": 2706,
      "ĠUbuntu": 2707,
      "Ob": 2708,
      "Ġlooking": 2709,
      "Ġcomput": 2710,
      "hing": 2711,
      "aterial": 2712,
      "arrow": 2713,
      "ĠÐ¢": 2714,
      "æĬĬ": 2715,
      "By": 2716,
      "],": 2717,
      "atures": 2718,
      "ĠÑĤ": 2719,
      "ones": 2720,
      "($": 2721,
      "Ġworks": 2722,
      "IS": 2723,
      "ique": 2724,
      "Data": 2725,
      "Ġalong": 2726,
      "side": 2727,
      "aring": 2728,
      "ES": 2729,
      "ping": 2730,
      "¥¿": 2731,
      "Ġselect": 2732,
      "ories": 2733,
      "ley": 2734,
      "ls": 2735,
      "ĠÐ´Ð¾": 2736,
      "ording": 2737,
      "Ġgovern": 2738,
      "lem": 2739,
      "Ġident": 2740,
      "ĠRes": 2741,
      "Ġarg": 2742,
      "è´¨": 2743,
      "ips": 2744,
      "Ð°Ð½": 2745,
      "ĠBe": 2746,
      "Ġexp": 2747,
      "ĠÐĶ": 2748,
      "ION": 2749,
      "ä¸ľ": 2750,
      "Ġprivate": 2751,
      "Ġoften": 2752,
      "Ġlaw": 2753,
      "Ġleast": 2754,
      "ĠCan": 2755,
      "iver": 2756,
      "éľĢ": 2757,
      "Ġleg": 2758,
      "ura": 2759,
      "éĿŀ": 2760,
      "urs": 2761,
      "Ġlay": 2762,
      "Ġeng": 2763,
      "Ġmind": 2764,
      "^\\": 2765,
      "vol": 2766,
      "urther": 2767,
      "ormal": 2768,
      "ajor": 2769,
      "Ph": 2770,
      "ills": 2771,
      "ĠGod": 2772,
      "åįķ": 2773,
      "Ġprovide": 2774,
      "åĲĦ": 2775,
      "æµ·": 2776,
      "Re": 2777,
      "orth": 2778,
      "ÑģÐ¸": 2779,
      "Ġmoment": 2780,
      "rip": 2781,
      "Ġinput": 2782,
      "HE": 2783,
      "Ġexperience": 2784,
      "Ġhold": 2785,
      "Ġshall": 2786,
      "OT": 2787,
      "ubuntu": 2788,
      "\"><": 2789,
      "æĶ¶": 2790,
      "sec": 2791,
      "mp": 2792,
      "ocial": 2793,
      "Ġstruct": 2794,
      "now": 2795,
      "ĠÐ¿ÑĢÐ¾": 2796,
      "è¥¿": 2797,
      "Ġmag": 2798,
      "ĠBl": 2799,
      "Ġparamet": 2800,
      "posed": 2801,
      "Ġhealth": 2802,
      "ĠAt": 2803,
      "ĠÑģÐ°": 2804,
      "mit": 2805,
      "Ġreason": 2806,
      "ĠMan": 2807,
      "mb": 2808,
      "éĹ¨": 2809,
      "file": 2810,
      "æĬĢ": 2811,
      "ohn": 2812,
      "ista": 2813,
      "åħ¬åı¸": 2814,
      "off": 2815,
      "Ġsingle": 2816,
      "test": 2817,
      "Ġeither": 2818,
      "How": 2819,
      "rror": 2820,
      "Ġwrit": 2821,
      "Ġinit": 2822,
      "Ġyoung": 2823,
      "ogle": 2824,
      "Ġmill": 2825,
      "Ġseen": 2826,
      "Ġoutput": 2827,
      "åı£": 2828,
      "];": 2829,
      "åĨį": 2830,
      "aph": 2831,
      "itud": 2832,
      "Ġsever": 2833,
      "value": 2834,
      "iod": 2835,
      "Un": 2836,
      "inst": 2837,
      "Ġsoft": 2838,
      "Ð´Ð¾": 2839,
      "AP": 2840,
      "udo": 2841,
      "rho": 2842,
      "Ġsuper": 2843,
      "const": 2844,
      "Ġdoesn": 2845,
      "Ġansw": 2846,
      "Ġincluding": 2847,
      "leq": 2848,
      "wards": 2849,
      "\":": 2850,
      "Ð½Ð¸ÑĤÐµ": 2851,
      "gether": 2852,
      "Ġbased": 2853,
      "Ġtogether": 2854,
      "ouble": 2855,
      "Ġexpress": 2856,
      "delta": 2857,
      "æĶ¿": 2858,
      "\".": 2859,
      "do": 2860,
      "Ġitem": 2861,
      "order": 2862,
      "ification": 2863,
      "Ġenerg": 2864,
      "Ã¯": 2865,
      ")}": 2866,
      "acions": 2867,
      "Ġhi": 2868,
      "iving": 2869,
      "ivity": 2870,
      "ĠÐ½Ðµ": 2871,
      "ĠCar": 2872,
      "çĪ±": 2873,
      "Ã¼": 2874,
      "ideo": 2875,
      "Ġfix": 2876,
      "Ġbelow": 2877,
      "sel": 2878,
      "éĻ¢": 2879,
      "ä»¶": 2880,
      "big": 2881,
      "Ġpast": 2882,
      "Ġmaking": 2883,
      "oman": 2884,
      "lib": 2885,
      "å²": 2886,
      "æł¼": 2887,
      "La": 2888,
      "æľ¯": 2889,
      "çĶ±": 2890,
      "ĠGu": 2891,
      "Ġmarket": 2892,
      "ÑģÑĤÐ°": 2893,
      "ored": 2894,
      "Ġsitu": 2895,
      "fort": 2896,
      "leg": 2897,
      "åķĨ": 2898,
      "incip": 2899,
      "Ġclos": 2900,
      "âĢĺ": 2901,
      "ales": 2902,
      "Ġobtain": 2903,
      "ai": 2904,
      "ources": 2905,
      "Ġera": 2906,
      "æĢ»": 2907,
      "æµģ": 2908,
      "body": 2909,
      "ched": 2910,
      "theta": 2911,
      "ĠÐĿ": 2912,
      "è¿Ļä¸ª": 2913,
      "åĢĻ": 2914,
      "ican": 2915,
      "ÑģÑĤÐ¸": 2916,
      "Ġalt": 2917,
      "Ġcorrect": 2918,
      "search": 2919,
      "ules": 2920,
      "On": 2921,
      "ä»»": 2922,
      "Ġcomplet": 2923,
      "acy": 2924,
      "Ġlik": 2925,
      "time": 2926,
      "Ġcomb": 2927,
      "ĠThen": 2928,
      "Ġmass": 2929,
      "ä»Ĭ": 2930,
      "angu": 2931,
      "Ġinvest": 2932,
      "table": 2933,
      "ĠÐ¾Ð±": 2934,
      "è¿Ĳ": 2935,
      "tau": 2936,
      "Ġphot": 2937,
      "Ġmove": 2938,
      "Ġenv": 2939,
      "ids": 2940,
      "è±": 2941,
      "ulation": 2942,
      "$-": 2943,
      "refore": 2944,
      "Value": 2945,
      "ĠUnivers": 2946,
      "åŃ©": 2947,
      "Ġpract": 2948,
      "uro": 2949,
      "ymbol": 2950,
      "sk": 2951,
      "æ®": 2952,
      "Ġhtt": 2953,
      "ened": 2954,
      "Ġstrong": 2955,
      "ĉif": 2956,
      "æīį": 2957,
      "Ġrepl": 2958,
      "dev": 2959,
      "There": 2960,
      "å¸¦": 2961,
      "OS": 2962,
      "ç§ĳ": 2963,
      "Ġhig": 2964,
      "éĢł": 2965,
      "una": 2966,
      "Ġ&&": 2967,
      "Ġentre": 2968,
      "Ġpob": 2969,
      "Ġsays": 2970,
      "Ġseveral": 2971,
      "Sh": 2972,
      "Ġbreak": 2973,
      "Set": 2974,
      "aim": 2975,
      "Ġsimple": 2976,
      "Ġcannot": 2977,
      "iques": 2978,
      "times": 2979,
      "que": 2980,
      "empt": 2981,
      "ĠĠĠĠĠĠĠĠĠĠĠĠ": 2982,
      "Ġredu": 2983,
      "Ġmeet": 2984,
      "Ġcode": 2985,
      "].": 2986,
      "Ġdest": 2987,
      "Ġrequire": 2988,
      "æ±Ĥ": 2989,
      "////": 2990,
      "ĠWith": 2991,
      "ams": 2992,
      "Ġnecess": 2993,
      "Ġaddress": 2994,
      "Ġcas": 2995,
      "åħĪ": 2996,
      "Ġheart": 2997,
      "Ġdiv": 2998,
      "Ġfut": 2999,
      "Ġwhole": 3000,
      "}$,": 3001,
      "ump": 3002,
      "ocus": 3003,
      "uration": 3004,
      "aint": 3005,
      "init": 3006,
      "cle": 3007,
      "Ġdeterm": 3008,
      "nu": 3009,
      "å±±": 3010,
      "Ġnothing": 3011,
      "è®°": 3012,
      "}$.": 3013,
      "ĉ//": 3014,
      "Im": 3015,
      "ison": 3016,
      "éĢī": 3017,
      "idual": 3018,
      "CO": 3019,
      "bu": 3020,
      "Ġimpro": 3021,
      "Ġchildren": 3022,
      "ĠChrist": 3023,
      "è®¤": 3024,
      "Ġ?": 3025,
      "ĠÑģÐ¸": 3026,
      "size": 3027,
      "Ġ%": 3028,
      "Ġonline": 3029,
      "tes": 3030,
      "arning": 3031,
      "æ¼": 3032,
      "!!": 3033,
      "Ġpage": 3034,
      "ury": 3035,
      "rodu": 3036,
      "Ð¿Ð°": 3037,
      "Ġspecial": 3038,
      "Ġvalues": 3039,
      "å¸Ī": 3040,
      "å¯¼": 3041,
      "Ġcolor": 3042,
      "ene": 3043,
      "Ġmax": 3044,
      "ailed": 3045,
      "Ġarea": 3046,
      "æĬ¥": 3047,
      "åŁİ": 3048,
      "arr": 3049,
      "è°ĥ": 3050,
      "eqref": 3051,
      "Ġspecific": 3052,
      "ĠPer": 3053,
      "Ġmoney": 3054,
      "}(\\": 3055,
      "åŀĭ": 3056,
      "ients": 3057,
      "èİ": 3058,
      "Ġface": 3059,
      "Ġcontinu": 3060,
      "Ġtook": 3061,
      "è§Ħ": 3062,
      "oud": 3063,
      "Ġcommon": 3064,
      "åĮ»": 3065,
      "Ġsound": 3066,
      "xi": 3067,
      "å¢ŀ": 3068,
      "ĠBr": 3069,
      "Ġstop": 3070,
      "Ġlearn": 3071,
      "Ġothers": 3072,
      "Ġwords": 3073,
      "Ġred": 3074,
      "Ġtalk": 3075,
      "ising": 3076,
      "åĶ": 3077,
      "Ġsense": 3078,
      "Ġcreat": 3079,
      "Ġbound": 3080,
      "sm": 3081,
      "è¯Ŀ": 3082,
      "Ġsimilar": 3083,
      "Ġpel": 3084,
      "Ġcountry": 3085,
      "anks": 3086,
      "ball": 3087,
      "Ġpath": 3088,
      "ç«ĭ": 3089,
      "Ġsugg": 3090,
      "å®Į": 3091,
      "ä»Ģ": 3092,
      "Ġcontent": 3093,
      "æº": 3094,
      "çº§": 3095,
      "èĮ": 3096,
      "ung": 3097,
      "ino": 3098,
      "rix": 3099,
      "Ð¿Ð¸": 3100,
      "icial": 3101,
      "Ġrequest": 3102,
      "è´¹": 3103,
      "åĽłä¸º": 3104,
      "Ġabs": 3105,
      "ĠSc": 3106,
      "imal": 3107,
      "Ð·Ð°": 3108,
      "Refer": 3109,
      "Is": 3110,
      "Ġhowever": 3111,
      "Ġjob": 3112,
      "mat": 3113,
      "Ġland": 3114,
      "å½±": 3115,
      "ending": 3116,
      "æĹ¶åĢĻ": 3117,
      "Get": 3118,
      "Ġdom": 3119,
      ".)": 3120,
      "Ġalg": 3121,
      "une": 3122,
      "Ġbody": 3123,
      "ĠÐ¿ÑĢÐ¸": 3124,
      "Ġdescrib": 3125,
      "ĠPar": 3126,
      "åıĪ": 3127,
      "Ġsuggest": 3128,
      "å®¹": 3129,
      "Ġsource": 3130,
      "ÑģÑĤÐ¾": 3131,
      "ĠDo": 3132,
      "Ġvolt": 3133,
      "atural": 3134,
      "color": 3135,
      "resh": 3136,
      "ĠTe": 3137,
      "ä¼ł": 3138,
      "So": 3139,
      "é¥": 3140,
      "èģĶ": 3141,
      "ĠQu": 3142,
      "ension": 3143,
      "Ġmajor": 3144,
      "éĺŁ": 3145,
      "å¦Ĥæŀľ": 3146,
      "partial": 3147,
      "Ġquite": 3148,
      "ä»Ģä¹Ī": 3149,
      "View": 3150,
      "æķĪ": 3151,
      "åįĹ": 3152,
      "ÑģÐµ": 3153,
      "ained": 3154,
      "ä¸ĵ": 3155,
      "AS": 3156,
      "Ġobserv": 3157,
      "æķ´": 3158,
      "ĠHowever": 3159,
      "æ¸ħ": 3160,
      "omega": 3161,
      "fty": 3162,
      "from": 3163,
      "Ġenergy": 3164,
      "Ġesc": 3165,
      "agement": 3166,
      "æłĩ": 3167,
      "ä¸ĸ": 3168,
      "Ġrange": 3169,
      "\";": 3170,
      "Or": 3171,
      "Ġtw": 3172,
      "èħ": 3173,
      "iction": 3174,
      "çĹħ": 3175,
      "ured": 3176,
      "Ġhimself": 3177,
      "mand": 3178,
      "room": 3179,
      "ĠĠĠĠĠĠĠĠĠĠ": 3180,
      "Ð»Ñı": 3181,
      "Ġcamp": 3182,
      "è¾¾": 3183,
      "irm": 3184,
      "Ġknown": 3185,
      "omet": 3186,
      "æĪĺ": 3187,
      "ued": 3188,
      "æĹ¶éĹ´": 3189,
      "Ġmakes": 3190,
      "Ġconc": 3191,
      "ences": 3192,
      "));": 3193,
      "Ġfiles": 3194,
      "çħ": 3195,
      "position": 3196,
      "rows": 3197,
      "ç¤º": 3198,
      "Ġcharacter": 3199,
      "fully": 3200,
      "ä»ĸä»¬": 3201,
      "ç»Ł": 3202,
      "Ġwhether": 3203,
      "Ġpod": 3204,
      "light": 3205,
      "AD": 3206,
      "Ġair": 3207,
      "Ġbeaut": 3208,
      "Ap": 3209,
      "Se": 3210,
      "èĬ±": 3211,
      "è¯¥": 3212,
      "åĪĽ": 3213,
      "cm": 3214,
      "['": 3215,
      "ba": 3216,
      "Ġdoing": 3217,
      "Ġespec": 3218,
      "èĬĤ": 3219,
      "With": 3220,
      "Ġindiv": 3221,
      "Ġhalf": 3222,
      "Ġtotal": 3223,
      "Ġperfect": 3224,
      "rt": 3225,
      "icro": 3226,
      "è¿ĳ": 3227,
      "ÑĬÑĤ": 3228,
      "icient": 3229,
      "Ġvisit": 3230,
      "UT": 3231,
      "IM": 3232,
      "No": 3233,
      "book": 3234,
      "Ġals": 3235,
      "Wh": 3236,
      "oll": 3237,
      "Ġaquest": 3238,
      "aged": 3239,
      "åı°": 3240,
      "Ð¡": 3241,
      "nection": 3242,
      "ä¼ģ": 3243,
      "Ġeasy": 3244,
      "Ġvi": 3245,
      "Ġacross": 3246,
      "ival": 3247,
      "Ġservices": 3248,
      "åĩł": 3249,
      "ches": 3250,
      "Ġstre": 3251,
      "Ġbase": 3252,
      "Ġbar": 3253,
      "ĠÐł": 3254,
      "ÐŁ": 3255,
      "Ġear": 3256,
      "Ġidea": 3257,
      "è¯ģ": 3258,
      "Ð³ÑĢÐ°": 3259,
      "iar": 3260,
      "Ġbecome": 3261,
      "which": 3262,
      "aced": 3263,
      "Ġamong": 3264,
      "ols": 3265,
      "Ġdue": 3266,
      "joy": 3267,
      "Ġrunning": 3268,
      "æĪ¿": 3269,
      "Ġanything": 3270,
      "Ġmeasure": 3271,
      "Ġrather": 3272,
      "æ¶Ī": 3273,
      "path": 3274,
      "ĠCent": 3275,
      "utes": 3276,
      "Ġneeds": 3277,
      "ilt": 3278,
      "çļĦäºº": 3279,
      "field": 3280,
      "quad": 3281,
      "Ġflo": 3282,
      "ĠString": 3283,
      "Ġcaus": 3284,
      "Ġprincip": 3285,
      "åĦ": 3286,
      "When": 3287,
      "Ġtrad": 3288,
      "Ġfav": 3289,
      "é¡¹": 3290,
      "Ġfill": 3291,
      "Ġden": 3292,
      "Ġfa": 3293,
      "ney": 3294,
      "ÑĢÐ¸Ñı": 3295,
      "Ind": 3296,
      "Mod": 3297,
      "çĻ½": 3298,
      "Ġposition": 3299,
      "ç²¾": 3300,
      "ç¤¾": 3301,
      "Ġsite": 3302,
      "Ġdiscuss": 3303,
      "space": 3304,
      "å½¢": 3305,
      "plement": 3306,
      "Ġqual": 3307,
      "Ġalmost": 3308,
      "Ġ$(": 3309,
      "è¾ĥ": 3310,
      "mm": 3311,
      "Ġlos": 3312,
      "Ġload": 3313,
      "ä¹¦": 3314,
      "All": 3315,
      "rs": 3316,
      "tilde": 3317,
      "|\\": 3318,
      "Exception": 3319,
      "Ġdidn": 3320,
      "ĠÐĵ": 3321,
      "Ġpaper": 3322,
      "UR": 3323,
      "Ġimage": 3324,
      "ita": 3325,
      "ĠJohn": 3326,
      "Ġpress": 3327,
      "Ġstatic": 3328,
      "ÑĨÐ¸Ñı": 3329,
      "infty": 3330,
      "è§Ĥ": 3331,
      "Ġtamb": 3332,
      "Ġrad": 3333,
      "ief": 3334,
      "cci": 3335,
      "Ġnetwork": 3336,
      "ze": 3337,
      "ING": 3338,
      "AB": 3339,
      "æĮĩ": 3340,
      "Ð¶Ðµ": 3341,
      "Ġimp": 3342,
      "ural": 3343,
      "è§ģ": 3344,
      "Ġnear": 3345,
      "Ġsuff": 3346,
      "ç©º": 3347,
      "mary": 3348,
      "imum": 3349,
      "Ġann": 3350,
      "lex": 3351,
      "å®ĥ": 3352,
      "çĲĥ": 3353,
      "Ġseems": 3354,
      "Ð¼Ð¾": 3355,
      "rew": 3356,
      "åıĭ": 3357,
      "Ġmaterial": 3358,
      "Ġcontin": 3359,
      "çĭ": 3360,
      "function": 3361,
      "èĢĥ": 3362,
      "Ġdefault": 3363,
      "though": 3364,
      "Ġsearch": 3365,
      "åıĳå±ķ": 3366,
      "Ġ/**": 3367,
      "æ¸¸": 3368,
      "åĦ¿": 3369,
      "Ġactually": 3370,
      "rown": 3371,
      "see": 3372,
      "Ġhom": 3373,
      "imate": 3374,
      "Ġcorres": 3375,
      "ties": 3376,
      "Ġrecord": 3377,
      "Ġwebs": 3378,
      "Qu": 3379,
      "ĠÑĢÐµ": 3380,
      "åĽĽ": 3381,
      "èµ°": 3382,
      "ara": 3383,
      "odes": 3384,
      "igure": 3385,
      "è¶Ĭ": 3386,
      "Ġetc": 3387,
      "åħī": 3388,
      "Int": 3389,
      "bit": 3390,
      "pen": 3391,
      "sim": 3392,
      "http": 3393,
      "æ³¨": 3394,
      "osp": 3395,
      "ĠIN": 3396,
      "åŃ©åŃĲ": 3397,
      "Ġstyle": 3398,
      "Ġquick": 3399,
      "è§ī": 3400,
      "isf": 3401,
      "urant": 3402,
      "rain": 3403,
      "CH": 3404,
      "æ£": 3405,
      "obal": 3406,
      "icy": 3407,
      "ÑģÑĤÐ²Ð¾": 3408,
      "Ġtarget": 3409,
      "ĠThese": 3410,
      "å¿«": 3411,
      "Ġdocument": 3412,
      "icult": 3413,
      "');": 3414,
      "Ġclose": 3415,
      "ators": 3416,
      "ike": 3417,
      "Ġsolution": 3418,
      "Ġground": 3419,
      "ĉreturn": 3420,
      "è¿Ľè¡Į": 3421,
      "asc": 3422,
      "Ġcut": 3423,
      "Ġfund": 3424,
      "....": 3425,
      "æ²»": 3426,
      "Ġfood": 3427,
      "Ġneg": 3428,
      "eb": 3429,
      "Ġrequired": 3430,
      "rary": 3431,
      "Ð»ÐµÐ´": 3432,
      "Ġinclude": 3433,
      "æĺĵ": 3434,
      "Error": 3435,
      "icon": 3436,
      "Ġstudy": 3437,
      "Ġblack": 3438,
      "Ġaction": 3439,
      "èĤ¡": 3440,
      "gu": 3441,
      "Ġgetting": 3442,
      "Ġtaken": 3443,
      "Ġsoon": 3444,
      "Delta": 3445,
      "lim": 3446,
      "çĬ": 3447,
      "éĹ®é¢ĺ": 3448,
      "ç»Ħ": 3449,
      "Ġcomes": 3450,
      "Ġindividual": 3451,
      "Ġoptions": 3452,
      "().": 3453,
      "ervice": 3454,
      "Object": 3455,
      "æĪ·": 3456,
      "ires": 3457,
      "Ġstep": 3458,
      "Ġgir": 3459,
      "Ġflow": 3460,
      "ibility": 3461,
      "Ġconfig": 3462,
      "Ġperiod": 3463,
      "Ġtro": 3464,
      "ÑĩÐ¸": 3465,
      "è§Ĩ": 3466,
      "Ġfall": 3467,
      "iful": 3468,
      "åĬŁ": 3469,
      "Ġlater": 3470,
      "Ġbuy": 3471,
      "æİ¨": 3472,
      "ĠCont": 3473,
      "ĠOne": 3474,
      "åħ·": 3475,
      "fl": 3476,
      "Ġemploy": 3477,
      "Ġoption": 3478,
      "èµĽ": 3479,
      "åĮĹ": 3480,
      "elt": 3481,
      "clus": 3482,
      "atus": 3483,
      "isk": 3484,
      "Ġ!=": 3485,
      "ached": 3486,
      "Ġpoints": 3487,
      "Ġbegin": 3488,
      "Ġhab": 3489,
      "ruction": 3490,
      "js": 3491,
      "ram": 3492,
      "ternal": 3493,
      "location": 3494,
      "Ð±Ð¾": 3495,
      "aving": 3496,
      "raf": 3497,
      "QL": 3498,
      "ega": 3499,
      "æĿ¡": 3500,
      "lement": 3501,
      "Ġmatter": 3502,
      "ä¸Ķ": 3503,
      "ĠSer": 3504,
      "Ġsaw": 3505,
      "abase": 3506,
      "Ġtrying": 3507,
      "Ġexact": 3508,
      "ceed": 3509,
      "Ġanswer": 3510,
      "nb": 3511,
      "Ġquality": 3512,
      "inary": 3513,
      "idd": 3514,
      "ÑīÐ°": 3515,
      "Def": 3516,
      "ĠEnglish": 3517,
      "rup": 3518,
      "ribute": 3519,
      "æĶ¹": 3520,
      "down": 3521,
      "oke": 3522,
      "ribution": 3523,
      "åĲĥ": 3524,
      "Add": 3525,
      "ĠAss": 3526,
      "Ġresp": 3527,
      "url": 3528,
      "selves": 3529,
      "Ġlive": 3530,
      "ĠDes": 3531,
      "æĬķ": 3532,
      "Test": 3533,
      "Ġartic": 3534,
      "Ġshows": 3535,
      "åıĸ": 3536,
      "éļ¾": 3537,
      "gress": 3538,
      "$$": 3539,
      "å¤ª": 3540,
      "ged": 3541,
      "Ġtold": 3542,
      "unch": 3543,
      "ĠÑĢÐ°Ð·": 3544,
      "Ġeyes": 3545,
      "index": 3546,
      "ç±»": 3547,
      "Ġcompon": 3548,
      "tings": 3549,
      "Ġhot": 3550,
      "æ·±": 3551,
      "empl": 3552,
      "ĠÐ»": 3553,
      "ironment": 3554,
      "aff": 3555,
      "Ġindic": 3556,
      "lev": 3557,
      "cho": 3558,
      "ster": 3559,
      "cdot": 3560,
      "olution": 3561,
      "ving": 3562,
      "ĠBy": 3563,
      "Ġ...": 3564,
      "ends": 3565,
      "Ġlarg": 3566,
      "At": 3567,
      "æŃ¥": 3568,
      "Ġfac": 3569,
      "verage": 3570,
      "Ġtoday": 3571,
      "Ġfurther": 3572,
      "ç¡®": 3573,
      "Ġtreat": 3574,
      "Ġder": 3575,
      "ND": 3576,
      "é£Ł": 3577,
      "Ġsepar": 3578,
      "public": 3579,
      "itted": 3580,
      "Ġexec": 3581,
      "lay": 3582,
      "Ġphys": 3583,
      "orem": 3584,
      "ĠEst": 3585,
      "ç¥ŀ": 3586,
      "Ġproperty": 3587,
      "_,": 3588,
      "####": 3589,
      "Ġprevious": 3590,
      "Ġpret": 3591,
      "Ġmap": 3592,
      "ä¸įæĺ¯": 3593,
      "Ġorg": 3594,
      "å¤ĩ": 3595,
      "anguage": 3596,
      "ns": 3597,
      "input": 3598,
      "å¾Īå¤ļ": 3599,
      "link": 3600,
      "ĠVal": 3601,
      "Ġhor": 3602,
      "ario": 3603,
      "ĠÐ³Ð¾Ð´Ð¸": 3604,
      "Ġsubject": 3605,
      "Ġmil": 3606,
      "tab": 3607,
      "å§ĭ": 3608,
      "æ¬¾": 3609,
      "Ġmiss": 3610,
      "è½¬": 3611,
      "æĳ": 3612,
      "Ġsocial": 3613,
      "ä¼ģä¸ļ": 3614,
      "Ġinstead": 3615,
      "Ġissue": 3616,
      "urch": 3617,
      "çķĮ": 3618,
      "igu": 3619,
      "ux": 3620,
      "oin": 3621,
      "èĤ²": 3622,
      "ottom": 3623,
      "comp": 3624,
      "Ġassoci": 3625,
      "abor": 3626,
      "ando": 3627,
      "uth": 3628,
      "idence": 3629,
      "ony": 3630,
      "user": 3631,
      "Ġoriginal": 3632,
      "ograph": 3633,
      "Ġbelieve": 3634,
      "ä½Ĩæĺ¯": 3635,
      "Ġlink": 3636,
      "Ġasked": 3637,
      "ĠMay": 3638,
      "å·²ç»ı": 3639,
      "Ġprint": 3640,
      "åĳ¨": 3641,
      "itten": 3642,
      "é¢Ĩ": 3643,
      "ells": 3644,
      "iding": 3645,
      "abled": 3646,
      "Not": 3647,
      "medi": 3648,
      "æ¹": 3649,
      "umer": 3650,
      "oon": 3651,
      "ĠSystem": 3652,
      "å¸Ĥåľº": 3653,
      "ĠÑĤÐ¾": 3654,
      "Ġhope": 3655,
      "è¿Ļæł·": 3656,
      "Ġtried": 3657,
      "Ġ///": 3658,
      "ĠGo": 3659,
      "US": 3660,
      "ĠInst": 3661,
      "Ġclear": 3662,
      "Ġpref": 3663,
      "pack": 3664,
      "ÑĢÑĬ": 3665,
      "IG": 3666,
      "Ġwalk": 3667,
      "uments": 3668,
      "}[": 3669,
      "Ġtri": 3670,
      "ä½ķ": 3671,
      "åįİ": 3672,
      "My": 3673,
      "Ġsil": 3674,
      "Ġpersonal": 3675,
      "ops": 3676,
      "Class": 3677,
      "isc": 3678,
      "ĠÐ¿ÑĢÐµÐ·": 3679,
      "Ġfuture": 3680,
      "OM": 3681,
      "Ġwhite": 3682,
      "sup": 3683,
      "å¼ł": 3684,
      "Ġoffer": 3685,
      "èĲ¥": 3686,
      "']": 3687,
      "ĠNot": 3688,
      "æħ": 3689,
      "FF": 3690,
      "Ġpri": 3691,
      "Ġindust": 3692,
      "Ġstory": 3693,
      "Ġeverything": 3694,
      "\"></": 3695,
      "iu": 3696,
      "Ġhost": 3697,
      "Ġsignific": 3698,
      "Ġelement": 3699,
      "ĠChe": 3700,
      "Ġdeg": 3701,
      "ä¼ĺ": 3702,
      "æ¢": 3703,
      "Par": 3704,
      "æīĢä»¥": 3705,
      "Ġenjoy": 3706,
      "Ġshown": 3707,
      "Ġwrite": 3708,
      "Ġserver": 3709,
      "Ġdevice": 3710,
      "åĩĨ": 3711,
      "raft": 3712,
      "Ġpara": 3713,
      "æģ¯": 3714,
      "());": 3715,
      "ä¹ł": 3716,
      "Ġsens": 3717,
      "Ġapplication": 3718,
      "Ġsobre": 3719,
      "ĠCal": 3720,
      "utions": 3721,
      "ogn": 3722,
      "ula": 3723,
      "Ġestab": 3724,
      "eqn": 3725,
      "Text": 3726,
      "ĠInt": 3727,
      "Ġcontact": 3728,
      "ores": 3729,
      "Ġill": 3730,
      "å¸ĥ": 3731,
      "å¹¿": 3732,
      "Ġcontext": 3733,
      "Ġsort": 3734,
      "ĠSte": 3735,
      "rid": 3736,
      "istic": 3737,
      "ags": 3738,
      "åħ±": 3739,
      "wise": 3740,
      "men": 3741,
      "inux": 3742,
      "Ð°Ð»": 3743,
      "Ġamount": 3744,
      "conom": 3745,
      "Ġadded": 3746,
      "éĢŁ": 3747,
      "Ġprobably": 3748,
      "çĥŃ": 3749,
      "Ġpict": 3750,
      "ĠSup": 3751,
      "ians": 3752,
      "Ġspeak": 3753,
      "}}\\": 3754,
      "Ġcorrespond": 3755,
      "Ġpa": 3756,
      "ä¹Ĳ": 3757,
      "Ġtitle": 3758,
      "pace": 3759,
      "åĬŀ": 3760,
      "ledge": 3761,
      "Ġindex": 3762,
      "ĠEd": 3763,
      "Ġvia": 3764,
      "nbsp": 3765,
      "aves": 3766,
      "ĠÐºÐ°ÑĤÐ¾": 3767,
      "Ġant": 3768,
      "Ġterms": 3769,
      "ä¹Łæĺ¯": 3770,
      "éĽĨ": 3771,
      "Ġpobl": 3772,
      "ites": 3773,
      "ÐĴ": 3774,
      "åħ»": 3775,
      "éħį": 3776,
      "ĠÐŀ": 3777,
      "Ġvoltage": 3778,
      "Ġweb": 3779,
      "Ġcontain": 3780,
      "æĶ¯": 3781,
      "éŁ": 3782,
      "Ġreview": 3783,
      "point": 3784,
      "Ġens": 3785,
      "fra": 3786,
      "Ġcity": 3787,
      "ands": 3788,
      "Ġpred": 3789,
      "Ġsi": 3790,
      "Ġperformance": 3791,
      "Ġbring": 3792,
      "ha": 3793,
      "Ġmach": 3794,
      "asing": 3795,
      "Ġhavia": 3796,
      "Ġdrive": 3797,
      "Ġdisplay": 3798,
      "Ġexam": 3799,
      "rel": 3800,
      "ysis": 3801,
      "Key": 3802,
      "Ġess": 3803,
      "Ġfeatures": 3804,
      "Ġstarted": 3805,
      "Ġbad": 3806,
      "Ġhuman": 3807,
      "éĺ²": 3808,
      "rite": 3809,
      "Ġfocus": 3810,
      "mega": 3811,
      "è£ħ": 3812,
      "haps": 3813,
      "åĨ³": 3814,
      "Ġbenef": 3815,
      "ustr": 3816,
      "Ġprop": 3817,
      "åıį": 3818,
      "Ð²Ð°Ð½Ðµ": 3819,
      "board": 3820,
      "Ġhours": 3821,
      "Ġdeal": 3822,
      "Ġcolumn": 3823,
      "ĠGe": 3824,
      "Ġwait": 3825,
      "rec": 3826,
      "åĮħ": 3827,
      "Ġfrequ": 3828,
      ")$.": 3829,
      "Ð³Ð¸": 3830,
      "uf": 3831,
      "lished": 3832,
      "Ġpor": 3833,
      "ĠÐĺ": 3834,
      "ç»Ń": 3835,
      "ULL": 3836,
      "Ġpie": 3837,
      "å¤į": 3838,
      "Ġprofess": 3839,
      "Ġstudents": 3840,
      "Ð²Ð°ÑĤ": 3841,
      "ĠÃ": 3842,
      "Ġple": 3843,
      "Ġwomen": 3844,
      "Ġintegr": 3845,
      "ä½İ": 3846,
      "sl": 3847,
      "ĠHis": 3848,
      "Ġintrodu": 3849,
      "Ġblock": 3850,
      "çĶŁæ´»": 3851,
      "åĥ": 3852,
      "Ġbed": 3853,
      "æł¡": 3854,
      "Ġauthor": 3855,
      "Man": 3856,
      "ellow": 3857,
      "å®¢": 3858,
      "Ġinvol": 3859,
      "Ġwonder": 3860,
      "Ġmol": 3861,
      "eff": 3862,
      "Ġcases": 3863,
      "Ð¿Ðµ": 3864,
      "Ġfront": 3865,
      "ĠCor": 3866,
      "PE": 3867,
      "ports": 3868,
      "Ġarray": 3869,
      "ĠCo": 3870,
      "perty": 3871,
      "Ġhigher": 3872,
      "bed": 3873,
      "æ¨": 3874,
      "Ġactiv": 3875,
      "Ġsem": 3876,
      "ection": 3877,
      "Ġsatisf": 3878,
      "å±Ģ": 3879,
      "};": 3880,
      "çª": 3881,
      "Ġparent": 3882,
      "åı¯èĥ½": 3883,
      "è¿ĺæĺ¯": 3884,
      "Ġcrit": 3885,
      "Ġwin": 3886,
      "Requ": 3887,
      "Ġautom": 3888,
      "é©¬": 3889,
      "Ġresist": 3890,
      "itting": 3891,
      "Ġnatural": 3892,
      "File": 3893,
      "olds": 3894,
      "åĢ¼": 3895,
      "Ġsection": 3896,
      "lia": 3897,
      "Ġproducts": 3898,
      "Ġsomeone": 3899,
      "Ġaccept": 3900,
      "oper": 3901,
      "âĶ": 3902,
      "Ġquant": 3903,
      "ĠFl": 3904,
      "urope": 3905,
      "æĿĥ": 3906,
      "xim": 3907,
      "èı": 3908,
      "ouch": 3909,
      "TER": 3910,
      "Ġdire": 3911,
      "Ġentire": 3912,
      "Time": 3913,
      "Ġvideo": 3914,
      "Ġdifficult": 3915,
      "ii": 3916,
      "TR": 3917,
      "æľª": 3918,
      "iple": 3919,
      "Ġclean": 3920,
      "Ġwebsite": 3921,
      "group": 3922,
      "Ġearly": 3923,
      "æĲ": 3924,
      "Ġsimply": 3925,
      "enn": 3926,
      "Ġlower": 3927,
      "çīĩ": 3928,
      "oad": 3929,
      "roller": 3930,
      "æºĲ": 3931,
      "å®Ŀ": 3932,
      "\\,": 3933,
      "Ġrate": 3934,
      "ounc": 3935,
      "ĠÐĽ": 3936,
      "åĪĻ": 3937,
      "Ġcomplete": 3938,
      "ĠMed": 3939,
      "Ġinstance": 3940,
      "Ġfou": 3941,
      "LO": 3942,
      "ĠÐ²ÑĬ": 3943,
      "df": 3944,
      "Ġlimit": 3945,
      ":\"": 3946,
      "Ġvarious": 3947,
      "æĺ¾": 3948,
      "Ġarch": 3949,
      "Ġtaking": 3950,
      "åĬ¿": 3951,
      "çº¢": 3952,
      "++": 3953,
      "nav": 3954,
      "urg": 3955,
      "Ġapproach": 3956,
      "ilities": 3957,
      "Ġcalcul": 3958,
      "Ġsche": 3959,
      "ĠLet": 3960,
      "LA": 3961,
      "Ġhon": 3962,
      "è¶ħ": 3963,
      "Ġitself": 3964,
      "Ġmessage": 3965,
      "çİ¯": 3966,
      "ä¾¿": 3967,
      "Ġpotential": 3968,
      "mar": 3969,
      "ui": 3970,
      "å¨": 3971,
      "https": 3972,
      "Ġlength": 3973,
      "Ð±Ð¸": 3974,
      "è®º": 3975,
      "Ġappear": 3976,
      "Ġresearch": 3977,
      "max": 3978,
      "Ġupdate": 3979,
      "Omega": 3980,
      "åĨµ": 3981,
      "orld": 3982,
      "éĻ¤": 3983,
      "Ġinstalled": 3984,
      "='": 3985,
      "Ġcult": 3986,
      "yl": 3987,
      "was": 3988,
      "åıĤ": 3989,
      "fer": 3990,
      "çľģ": 3991,
      "æĴ": 3992,
      "Ġ/>": 3993,
      "ĠReg": 3994,
      "Ġcard": 3995,
      "çİĭ": 3996,
      "Ġfriends": 3997,
      "eral": 3998,
      "åįĩ": 3999,
      "Ġmembers": 4000,
      "iet": 4001,
      "æļ": 4002,
      "Ġutil": 4003,
      "ä¼Ĺ": 4004,
      "sequ": 4005,
      "inition": 4006,
      "åį³": 4007,
      "ATE": 4008,
      "ÑĥÑĢ": 4009,
      "ening": 4010,
      "itude": 4011,
      "éľĢè¦ģ": 4012,
      "Inst": 4013,
      "ender": 4014,
      "Ġcreated": 4015,
      "mission": 4016,
      "Ġcompet": 4017,
      "like": 4018,
      "çłĶ": 4019,
      "map": 4020,
      "oice": 4021,
      "ÑĬÐ»Ð³Ð°": 4022,
      "æĢģ": 4023,
      "!--": 4024,
      "error": 4025,
      "That": 4026,
      "py": 4027,
      "node": 4028,
      "Ġeduc": 4029,
      "Ġrecomm": 4030,
      "åĨĽ": 4031,
      "Ġdownload": 4032,
      "andom": 4033,
      "lt": 4034,
      "Ġfine": 4035,
      "ij": 4036,
      "åĬ©": 4037,
      "æł¹": 4038,
      "epsilon": 4039,
      "Ġang": 4040,
      "äºĶ": 4041,
      "ĠĠĠĠĠĠĠĠĠĠĠĠĠĠĠĠĠĠĠĠĠĠĠĠĠĠĠ": 4042,
      "Ġfire": 4043,
      "From": 4044,
      "å¹²": 4045,
      "ync": 4046,
      "Ġfive": 4047,
      "Ġpers": 4048,
      "dom": 4049,
      "ĠÑĤÐµ": 4050,
      "textbf": 4051,
      "capt": 4052,
      "ena": 4053,
      "Ġhands": 4054,
      "overed": 4055,
      "ÑīÐµ": 4056,
      "Ġnormal": 4057,
      "ĠUniversity": 4058,
      "inks": 4059,
      "ĠÐ´Ðµ": 4060,
      "Ġexpected": 4061,
      "____": 4062,
      "Ġminutes": 4063,
      "}_{\\": 4064,
      "amed": 4065,
      "Ġplease": 4066,
      "Ġneeded": 4067,
      "ä¾Ľ": 4068,
      "';": 4069,
      "å¼ķ": 4070,
      "Ġwindow": 4071,
      "åĳĬ": 4072,
      "ÑģÐ°": 4073,
      "ĠSant": 4074,
      "raphics": 4075,
      "æľįåĬ¡": 4076,
      "Ġseries": 4077,
      "Ġround": 4078,
      "mber": 4079,
      "Sc": 4080,
      "Ġconstant": 4081,
      "IP": 4082,
      "Ġsal": 4083,
      "Ġago": 4084,
      "Ġbox": 4085,
      "ĠIm": 4086,
      "Ġhttp": 4087,
      "Ġprotect": 4088,
      "Ġge": 4089,
      "é¦ĸ": 4090,
      "uly": 4091,
      "length": 4092,
      "æŁ¥": 4093,
      "(),": 4094,
      "ises": 4095,
      "Ġmodels": 4096,
      "äººçļĦ": 4097,
      "Ġcondition": 4098,
      "Ġaud": 4099,
      "Ġsud": 4100,
      "Ġheard": 4101,
      "leep": 4102,
      "Ġcompan": 4103,
      "ils": 4104,
      "astic": 4105,
      "èĩªå·±çļĦ": 4106,
      "Ġdrop": 4107,
      "come": 4108,
      "Ġste": 4109,
      "åĥı": 4110,
      "uns": 4111,
      "Of": 4112,
      "Ġprice": 4113,
      "Ġmount": 4114,
      "åĽ¾": 4115,
      "hel": 4116,
      "Ġthus": 4117,
      "æĢĿ": 4118,
      "åĽ¢": 4119,
      "Ġcommunity": 4120,
      "ĠAmerican": 4121,
      "çİ°åľ¨": 4122,
      "æ¡Ī": 4123,
      "Ad": 4124,
      "ÑģÐºÐ¾": 4125,
      "éĿŀå¸¸": 4126,
      "Ġshare": 4127,
      "ĠAfter": 4128,
      "anced": 4129,
      "lla": 4130,
      "airs": 4131,
      "Ġesp": 4132,
      "Ġlooked": 4133,
      "print": 4134,
      "Ġlikely": 4135,
      "config": 4136,
      "Ġsoftware": 4137,
      "ken": 4138,
      "Ġregard": 4139,
      "Ġbackground": 4140,
      "ĠÑħ": 4141,
      "æ»¡": 4142,
      "Ġmother": 4143,
      "Ġboot": 4144,
      "å¤§å®¶": 4145,
      "eneral": 4146,
      "Ġscreen": 4147,
      "éĥ½æĺ¯": 4148,
      "è¶³": 4149,
      "Ġgraph": 4150,
      "Event": 4151,
      "Ġstay": 4152,
      "www": 4153,
      "çı": 4154,
      "Ġextra": 4155,
      "ĠMac": 4156,
      "æĿĳ": 4157,
      "Ġrelations": 4158,
      "Ġfer": 4159,
      "Let": 4160,
      "':": 4161,
      "orith": 4162,
      "ging": 4163,
      "ota": 4164,
      "Ġdim": 4165,
      "bin": 4166,
      "Ġdoor": 4167,
      "plied": 4168,
      "Ġfeature": 4169,
      "oken": 4170,
      "Ġbeautiful": 4171,
      "Ġlonger": 4172,
      "ĠIntern": 4173,
      "Ġmatch": 4174,
      "under": 4175,
      "çľ¼": 4176,
      "ros": 4177,
      "psilon": 4178,
      "psi": 4179,
      "Ġdig": 4180,
      "å¿ħ": 4181,
      "Ġstandard": 4182,
      "Ġchanges": 4183,
      "Ġtrack": 4184,
      "db": 4185,
      "Ġhol": 4186,
      "just": 4187,
      "Ġtraining": 4188,
      "lock": 4189,
      "çİĩ": 4190,
      "oun": 4191,
      "elling": 4192,
      "ograf": 4193,
      "Ġproblems": 4194,
      "ĠPol": 4195,
      "æĸĻ": 4196,
      "èĩ´": 4197,
      "osa": 4198,
      "Ġopport": 4199,
      "æ®µ": 4200,
      "ĠNow": 4201,
      "ĠAb": 4202,
      "rought": 4203,
      "istes": 4204,
      "Ġdevelopment": 4205,
      "ya": 4206,
      "Ġtemper": 4207,
      "æİĴ": 4208,
      "Ġfather": 4209,
      "ama": 4210,
      "çļĦæĹ¶åĢĻ": 4211,
      "Ġfins": 4212,
      "Ġprec": 4213,
      "ENT": 4214,
      "you": 4215,
      "Ġvers": 4216,
      "çħ§": 4217,
      "Ġdefined": 4218,
      "Ġband": 4219,
      "ä¹°": 4220,
      "sqrt": 4221,
      "ä½ı": 4222,
      "Ġmonths": 4223,
      "Ġparticip": 4224,
      "ä»ħ": 4225,
      "Ġach": 4226,
      ")$,": 4227,
      "ĠÐ¥": 4228,
      "å¾Ģ": 4229,
      "curity": 4230,
      "Ġdos": 4231,
      "ĠWill": 4232,
      "ĠMe": 4233,
      "Ġcross": 4234,
      "irtual": 4235,
      "Ġmusic": 4236,
      ".</": 4237,
      "Ġful": 4238,
      "Ġwall": 4239,
      "å©": 4240,
      "Ġlat": 4241,
      "ÑĢÐ°ÑĤ": 4242,
      "çģ«": 4243,
      "è¾¹": 4244,
      "Ġpretty": 4245,
      "ĉĉĉĉĉ": 4246,
      "Ġwoman": 4247,
      "çĮ": 4248,
      "PI": 4249,
      "Ġdecl": 4250,
      "count": 4251,
      "Ġregular": 4252,
      "aging": 4253,
      "Ġsystems": 4254,
      "''": 4255,
      "Ġpan": 4256,
      "Ġloss": 4257,
      "nia": 4258,
      "ynam": 4259,
      "result": 4260,
      "^*": 4261,
      "åı·": 4262,
      "è¯Ĩ": 4263,
      "Ġaw": 4264,
      "ĠOur": 4265,
      "cup": 4266,
      "ĠDr": 4267,
      "Ġnode": 4268,
      "Ġisn": 4269,
      "ĠÐ²Ð¾": 4270,
      "ÑĨÐ°": 4271,
      "ĠWindows": 4272,
      "åĻ": 4273,
      "vare": 4274,
      "nces": 4275,
      "éļı": 4276,
      "åį´": 4277,
      "Ġson": 4278,
      "æľĽ": 4279,
      "æĬ¤": 4280,
      "Ġsun": 4281,
      "ç¦»": 4282,
      "Ġleave": 4283,
      "ML": 4284,
      "irit": 4285,
      "Ġprovided": 4286,
      "é¾": 4287,
      "sing": 4288,
      "bm": 4289,
      "Ġdate": 4290,
      "more": 4291,
      "Ġclick": 4292,
      "ĠÐ¼Ðµ": 4293,
      "ĠAdd": 4294,
      "Ġdetails": 4295,
      "çļĦä¸Ģ": 4296,
      "Ġweight": 4297,
      "åĸľ": 4298,
      "Ġaccording": 4299,
      "Ġsym": 4300,
      "Ġcomplex": 4301,
      "ĠMin": 4302,
      "Ġlines": 4303,
      "Ðĺ": 4304,
      "Ġdraw": 4305,
      "subsection": 4306,
      "ĠBo": 4307,
      "Ġusually": 4308,
      "Ġcause": 4309,
      "Ġinitial": 4310,
      "Ġfast": 4311,
      "Ġforward": 4312,
      "Ġquestions": 4313,
      "fil": 4314,
      "Ġremov": 4315,
      "Ġactual": 4316,
      "Ġaddition": 4317,
      "Ġwhose": 4318,
      "Ġpoblaci": 4319,
      "ourn": 4320,
      "Ġcoming": 4321,
      "rav": 4322,
      "ĠÑĩÐµ": 4323,
      "åħĭ": 4324,
      "umb": 4325,
      "Ġseason": 4326,
      "Ġstructure": 4327,
      "ilder": 4328,
      "Over": 4329,
      "å¤Ł": 4330,
      "éĢĤ": 4331,
      "è®¸": 4332,
      "Ed": 4333,
      "Ġdifference": 4334,
      "caption": 4335,
      "æ²¹": 4336,
      "ora": 4337,
      "ias": 4338,
      "Gamma": 4339,
      "Ġrespons": 4340,
      "éĢļè¿ĩ": 4341,
      "Ġenvironment": 4342,
      "Ġroot": 4343,
      "kn": 4344,
      "Ġhistory": 4345,
      "hers": 4346,
      "Ġnote": 4347,
      "Ġwatch": 4348,
      "Ġdeath": 4349,
      "non": 4350,
      "Ġclaim": 4351,
      "Ġchoose": 4352,
      "Ġimplement": 4353,
      "Ġpick": 4354,
      "eter": 4355,
      "/*": 4356,
      "Ġfit": 4357,
      "orage": 4358,
      "Ġapply": 4359,
      "Ġwrong": 4360,
      "UN": 4361,
      "åŃĺ": 4362,
      "Ġslow": 4363,
      "urb": 4364,
      "Ġmention": 4365,
      "Ġgave": 4366,
      "Ġmyself": 4367,
      "çļĦæĺ¯": 4368,
      "rad": 4369,
      "cor": 4370,
      "pres": 4371,
      "izing": 4372,
      "Ġparts": 4373,
      "Ġnecessary": 4374,
      "Ġ);": 4375,
      "å¤±": 4376,
      "Ġimprove": 4377,
      "Ġevents": 4378,
      "igned": 4379,
      "Ġgives": 4380,
      "çĶ·": 4381,
      "Ġcam": 4382,
      "rim": 4383,
      "orks": 4384,
      "can": 4385,
      "ĠPart": 4386,
      "æĸ¯": 4387,
      "Now": 4388,
      "summary": 4389,
      "\"\"": 4390,
      "annel": 4391,
      "ners": 4392,
      "æŀģ": 4393,
      "è®®": 4394,
      "éĻħ": 4395,
      "eqnarray": 4396,
      "Ġri": 4397,
      "Ġespecially": 4398,
      "Ġdeep": 4399,
      "Ġresponse": 4400,
      "varepsilon": 4401,
      "anger": 4402,
      "Ġgovernment": 4403,
      "Ġgen": 4404,
      "nder": 4405,
      "ç§°": 4406,
      "Item": 4407,
      "Ġ~": 4408,
      "ĠRep": 4409,
      "Request": 4410,
      "Ð°Ð¹": 4411,
      "iddle": 4412,
      "åĳ½": 4413,
      "Ġfoot": 4414,
      "CE": 4415,
      "åŃĹ": 4416,
      "Ġpub": 4417,
      "éªĮ": 4418,
      "åĪ°äºĨ": 4419,
      "efore": 4420,
      "Ġmorning": 4421,
      "Ġassert": 4422,
      "style": 4423,
      "Ġspect": 4424,
      "çº¦": 4425,
      "Ġdark": 4426,
      "ç´ł": 4427,
      "ç±³": 4428,
      "Ġwar": 4429,
      "Ġassum": 4430,
      "--------------------------------": 4431,
      "ooth": 4432,
      "ĠYork": 4433,
      "ponent": 4434,
      "Ġbehind": 4435,
      "Fr": 4436,
      "Ġknew": 4437,
      "State": 4438,
      "bor": 4439,
      "ÑģÐ¾": 4440,
      "Ġmode": 4441,
      "terns": 4442,
      "Ġthird": 4443,
      "}=": 4444,
      "php": 4445,
      "Ġfollows": 4446,
      "ç½®": 4447,
      "è¡Ģ": 4448,
      "Ġthemselves": 4449,
      "å¼Ģå§ĭ": 4450,
      "unicip": 4451,
      "Ġpain": 4452,
      "Do": 4453,
      "è±¡": 4454,
      "Ġca": 4455,
      "Ġwriting": 4456,
      "Ġdam": 4457,
      "Ġissues": 4458,
      "Ġfavor": 4459,
      "ĠSet": 4460,
      "De": 4461,
      "ĠHere": 4462,
      "Ġcapac": 4463,
      "æĸ½": 4464,
      "vis": 4465,
      "Ġplant": 4466,
      "ĠÐ½Ð¾": 4467,
      "Bu": 4468,
      "Field": 4469,
      "ĠMon": 4470,
      "Ġdiag": 4471,
      "äº¿": 4472,
      "Ġwritten": 4473,
      "TE": 4474,
      "ÑģÐºÐ°ÑĤÐ°": 4475,
      "uel": 4476,
      "å·ŀ": 4477,
      "egraphics": 4478,
      "includegraphics": 4479,
      "Ġconditions": 4480,
      "IL": 4481,
      "Element": 4482,
      "å¢ĥ": 4483,
      "Ġsix": 4484,
      "Ġsignificant": 4485,
      "Ġcopy": 4486,
      "ministr": 4487,
      "ĠGet": 4488,
      "æ¬¢": 4489,
      "Ġcoll": 4490,
      "Ð»Ñĥ": 4491,
      "true": 4492,
      "æĸŃ": 4493,
      "Form": 4494,
      "Ġswe": 4495,
      "Ġconsist": 4496,
      "Ġtakes": 4497,
      "plies": 4498,
      "ola": 4499,
      "Ġage": 4500,
      "earch": 4501,
      "ĠÐ¤": 4502,
      "Ġreceived": 4503,
      "Ġpopular": 4504,
      "Ġsn": 4505,
      "æİ§": 4506,
      "è¯ķ": 4507,
      "ille": 4508,
      "proof": 4509,
      "ios": 4510,
      "sudo": 4511,
      "Ġremain": 4512,
      "Ġpurch": 4513,
      "erra": 4514,
      "è¿ŀ": 4515,
      "used": 4516,
      "Ġcircuit": 4517,
      "ĠYour": 4518,
      "ride": 4519,
      "tot": 4520,
      "Ġbuilding": 4521,
      "hab": 4522,
      "Ġrelated": 4523,
      "éĶĢ": 4524,
      "Ġcred": 4525,
      "Ġlearning": 4526,
      "yd": 4527,
      "oo": 4528,
      "Le": 4529,
      "Ġknowledge": 4530,
      "Ġworth": 4531,
      "ĠII": 4532,
      "emph": 4533,
      "Ðĳ": 4534,
      "ady": 4535,
      "ografia": 4536,
      "cion": 4537,
      "hib": 4538,
      "Ġupd": 4539,
      "Ġturned": 4540,
      "Ġcomputer": 4541,
      "ÑĢÐ°Ð½": 4542,
      "){": 4543,
      "Ġci": 4544,
      "object": 4545,
      "Ġ/*": 4546,
      "çĻ¾": 4547,
      "PS": 4548,
      "_.": 4549,
      "ĠComp": 4550,
      "ĠPa": 4551,
      "po": 4552,
      "Ġsus": 4553,
      "cret": 4554,
      "pri": 4555,
      "æ¼Ķ": 4556,
      "eed": 4557,
      "Ġpet": 4558,
      "Ġroad": 4559,
      "åĵį": 4560,
      "èİ·": 4561,
      "md": 4562,
      "éĻĲ": 4563,
      "è¨": 4564,
      "Ġgrad": 4565,
      "ĠÐ¼Ñĥ": 4566,
      "hand": 4567,
      "Ġindepend": 4568,
      "Ġmeaning": 4569,
      "void": 4570,
      "Ġfail": 4571,
      "Ġwidth": 4572,
      "Ġtherefore": 4573,
      "des": 4574,
      "è¯·": 4575,
      ")=": 4576,
      "Ġframe": 4577,
      "rict": 4578,
      "Ġwanted": 4579,
      "ming": 4580,
      "orts": 4581,
      "Ġ});": 4582,
      "Ġspeed": 4583,
      "æµİ": 4584,
      "Ġadditional": 4585,
      "Ġheld": 4586,
      "ĠNULL": 4587,
      "Info": 4588,
      "Map": 4589,
      "Equ": 4590,
      "roups": 4591,
      "AG": 4592,
      "éĴ±": 4593,
      "ĠEurope": 4594,
      "çŁ¥éģĵ": 4595,
      "thon": 4596,
      "åİĨ": 4597,
      "ca": 4598,
      "Ġready": 4599,
      "ĠMore": 4600,
      "ernel": 4601,
      "olean": 4602,
      "}^{\\": 4603,
      "cast": 4604,
      "Ġstates": 4605,
      "Ġmultiple": 4606,
      "ç¬¬ä¸Ģ": 4607,
      "Ġliter": 4608,
      "Node": 4609,
      "abla": 4610,
      "æĥħåĨµ": 4611,
      "æ¨¡": 4612,
      "valid": 4613,
      "Ġprovides": 4614,
      "oph": 4615,
      "Ġ($": 4616,
      "Ġsave": 4617,
      "place": 4618,
      "ĠOb": 4619,
      "éĺ³": 4620,
      "ĠÐ³ÑĢÐ°": 4621,
      "She": 4622,
      "Read": 4623,
      "ĠÐķ": 4624,
      "åĻ¨": 4625,
      "=\"+": 4626,
      "ying": 4627,
      "iting": 4628,
      "illa": 4629,
      "Ġment": 4630,
      "Then": 4631,
      "Up": 4632,
      "Ġchall": 4633,
      "su": 4634,
      "chi": 4635,
      "åģ¥": 4636,
      "Ð¼ÐµÐ½": 4637,
      "plication": 4638,
      "äº§åĵģ": 4639,
      "Ġvalid": 4640,
      "ensive": 4641,
      "ÑĢÐµÐ·": 4642,
      "ĠBar": 4643,
      "idered": 4644,
      "å¯¹äºİ": 4645,
      "Ġpolit": 4646,
      "Ġ},": 4647,
      "Ġaccom": 4648,
      "Ðł": 4649,
      "Ġinside": 4650,
      "verse": 4651,
      "è½»": 4652,
      "Ġfamil": 4653,
      "ÑĩÐ½Ð¸": 4654,
      "æĬĢæľ¯": 4655,
      "è¨Ģ": 4656,
      "fin": 4657,
      "ĠAm": 4658,
      "æŀĦ": 4659,
      "Ġtown": 4660,
      "Ġclient": 4661,
      "Ġq": 4662,
      "^{(": 4663,
      "Ġimmedi": 4664,
      "å¥½çļĦ": 4665,
      "icle": 4666,
      "æĻ¯": 4667,
      "å§Ķ": 4668,
      "lege": 4669,
      "java": 4670,
      "Ġeasily": 4671,
      "çīĮ": 4672,
      "iana": 4673,
      "select": 4674,
      "ifier": 4675,
      "Ġ\\,": 4676,
      "Be": 4677,
      "ç¢": 4678,
      "åĭ": 4679,
      "ensity": 4680,
      "dt": 4681,
      "Index": 4682,
      "anch": 4683,
      "Ġseus": 4684,
      "è¿ĻäºĽ": 4685,
      "Ġincrease": 4686,
      "è´£": 4687,
      "Ġdou": 4688,
      ".'": 4689,
      "center": 4690,
      "ordin": 4691,
      "Ġ${\\": 4692,
      "ç§¯": 4693,
      "Ġblog": 4694,
      "api": 4695,
      "mult": 4696,
      "Ġsqu": 4697,
      "())": 4698,
      "~~": 4699,
      "atform": 4700,
      "Ġinform": 4701,
      "å¾·": 4702,
      "Ġways": 4703,
      "Ġhear": 4704,
      "Path": 4705,
      "Ġlanguage": 4706,
      "ocs": 4707,
      "itats": 4708,
      "Ġparty": 4709,
      "åĽ½å®¶": 4710,
      "One": 4711,
      "Ġtax": 4712,
      "ç®Ĺ": 4713,
      "Ġconnection": 4714,
      "åıĮ": 4715,
      "Ġlooks": 4716,
      "Ġbecom": 4717,
      "Ġarticle": 4718,
      "ç»Ī": 4719,
      "IR": 4720,
      "plit": 4721,
      "ĠÐ³Ð¾Ð´Ð¸Ð½Ð°": 4722,
      "Ġdirectly": 4723,
      "ç®¡çĲĨ": 4724,
      "æĺŁ": 4725,
      "enty": 4726,
      "Ġmis": 4727,
      "Ġswitch": 4728,
      "è¿ľ": 4729,
      "Ġunique": 4730,
      "Ġliving": 4731,
      "Ġbegan": 4732,
      "Ġcast": 4733,
      "åĨľ": 4734,
      "Ġdespr": 4735,
      "rupt": 4736,
      "ç«Ļ": 4737,
      "hood": 4738,
      "Ġlost": 4739,
      "é¢Ħ": 4740,
      "Ġusers": 4741,
      "ĠSm": 4742,
      "Ġstore": 4743,
      "èĲ½": 4744,
      "Ġblo": 4745,
      "Ġsec": 4746,
      "ĠState": 4747,
      "uk": 4748,
      "Ġfelt": 4749,
      "Ġassist": 4750,
      "Ġanalysis": 4751,
      "Pl": 4752,
      "title": 4753,
      "ĠSome": 4754,
      "Ð´ÐµÐ½": 4755,
      "Ġscript": 4756,
      "Ent": 4757,
      "æĹ©": 4758,
      "Ġseemed": 4759,
      "Ġremove": 4760,
      "call": 4761,
      "äº²": 4762,
      "escription": 4763,
      "Ġrecogn": 4764,
      "undred": 4765,
      "ä»½": 4766,
      "Ġsomet": 4767,
      "Ġapt": 4768,
      "Ġyourself": 4769,
      "Ġfair": 4770,
      "ĠGl": 4771,
      "|-": 4772,
      "Ġnames": 4773,
      "host": 4774,
      "ĠCount": 4775,
      "Ġdir": 4776,
      "apter": 4777,
      "ship": 4778,
      "é»Ħ": 4779,
      "Ġpackage": 4780,
      "å£«": 4781,
      "æĸ¹éĿ¢": 4782,
      "æ±Ł": 4783,
      "å¤§çļĦ": 4784,
      "illed": 4785,
      "Ġmethods": 4786,
      "ught": 4787,
      "Ġattempt": 4788,
      "start": 4789,
      "iam": 4790,
      "ham": 4791,
      "ĠPe": 4792,
      "åĪĩ": 4793,
      "ĠUnited": 4794,
      "Ð¶Ð°": 4795,
      "Ġwish": 4796,
      "next": 4797,
      "geq": 4798,
      "å¾®": 4799,
      "ä¹ī": 4800,
      "obile": 4801,
      "ç»´": 4802,
      "ĠDep": 4803,
      "ä¸ĢäºĽ": 4804,
      "åºķ": 4805,
      "anya": 4806,
      "Ġformat": 4807,
      "ĠAct": 4808,
      "inner": 4809,
      "ĠFrom": 4810,
      "Ġ()": 4811,
      "iny": 4812,
      "erent": 4813,
      "ĠSim": 4814,
      "oring": 4815,
      "pass": 4816,
      "gs": 4817,
      "[]": 4818,
      "åĲĮæĹ¶": 4819,
      "atives": 4820,
      "Ġbehav": 4821,
      "OD": 4822,
      "Ġparameters": 4823,
      "hi": 4824,
      "rangle": 4825,
      "Ġinflu": 4826,
      "Ġsend": 4827,
      "Ġconsidered": 4828,
      "Ġimag": 4829,
      "rightarrow": 4830,
      "Ġcover": 4831,
      "Ġbrought": 4832,
      "pression": 4833,
      "Ġsignal": 4834,
      "ĠÐ¶": 4835,
      "Context": 4836,
      "Ġwood": 4837,
      "ding": 4838,
      "lete": 4839,
      "Ser": 4840,
      "draw": 4841,
      "Ġstrateg": 4842,
      "Result": 4843,
      "éĩĩ": 4844,
      "ç»Ĩ": 4845,
      "=\"../../": 4846,
      "acion": 4847,
      "ocks": 4848,
      "Ðļ": 4849,
      "New": 4850,
      "ÐĲ": 4851,
      "OL": 4852,
      "vi": 4853,
      "gy": 4854,
      "Ġboard": 4855,
      "ÑģÐºÐ¸Ñı": 4856,
      "reate": 4857,
      "Ġchoice": 4858,
      "ĠMod": 4859,
      "Ġattack": 4860,
      "æ¸©": 4861,
      "ÑĬÐ½": 4862,
      "Ġmedia": 4863,
      "Ġpositive": 4864,
      "äº¬": 4865,
      "Ġones": 4866,
      "ĠRob": 4867,
      "Ġaffect": 4868,
      "ä¾Ŀ": 4869,
      "Ġbal": 4870,
      "Ġmachine": 4871,
      "itect": 4872,
      "si": 4873,
      "change": 4874,
      "Ġmillion": 4875,
      "ä¸įèĥ½": 4876,
      "Ġ-->": 4877,
      "Ġestim": 4878,
      "Act": 4879,
      "iva": 4880,
      "Ġoutside": 4881,
      "éĻ©": 4882,
      "Ġcontinue": 4883,
      "ĠJan": 4884,
      "``": 4885,
      "Ġtravel": 4886,
      "Ġmemory": 4887,
      "zz": 4888,
      "default": 4889,
      "quot": 4890,
      "pty": 4891,
      "Ġord": 4892,
      "nes": 4893,
      "ĠRec": 4894,
      "parent": 4895,
      "Ġsubst": 4896,
      "check": 4897,
      "Here": 4898,
      "Ġelements": 4899,
      "çĸĹ": 4900,
      "wid": 4901,
      "Ġdatabase": 4902,
      "Ġconnected": 4903,
      "info": 4904,
      "èŀ": 4905,
      "Ġreading": 4906,
      "boot": 4907,
      "Ġfunctions": 4908,
      "èĭ±": 4909,
      "Ġnature": 4910,
      "æĭī": 4911,
      "based": 4912,
      "Ġdriv": 4913,
      "èį¯": 4914,
      "base": 4915,
      "èĳ": 4916,
      "ateix": 4917,
      "band": 4918,
      "ĠĠĠĠĠĠĠĠĠĠĠĠĠĠ": 4919,
      ".~\\": 4920,
      "Ġnews": 4921,
      "Ġpoor": 4922,
      "iant": 4923,
      "Ġlocation": 4924,
      "known": 4925,
      "ĠCons": 4926,
      "usr": 4927,
      "Ġregion": 4928,
      "/**": 4929,
      "Ġbuilt": 4930,
      "gen": 4931,
      "ĠCap": 4932,
      "ema": 4933,
      "using": 4934,
      "Ġeconom": 4935,
      "Ġcommunic": 4936,
      "Config": 4937,
      "Ġsequ": 4938,
      "ĠEm": 4939,
      "aries": 4940,
      "aching": 4941,
      "Ġir": 4942,
      "Ġmit": 4943,
      "anes": 4944,
      "Ġavoid": 4945,
      "ĠDon": 4946,
      "ĠOf": 4947,
      "ktop": 4948,
      "ä¸Ģå®ļ": 4949,
      "Ġgran": 4950,
      ")(": 4951,
      "gener": 4952,
      "ĠOff": 4953,
      "MS": 4954,
      "Ġequip": 4955,
      "atre": 4956,
      "å¦Ī": 4957,
      "ĠBu": 4958,
      "Ġmodern": 4959,
      "æĪĲä¸º": 4960,
      "alu": 4961,
      "ella": 4962,
      "Ġgames": 4963,
      "cer": 4964,
      "Ġfixed": 4965,
      "arcel": 4966,
      "ĠAg": 4967,
      "Ġrecent": 4968,
      "ĠAS": 4969,
      "ocal": 4970,
      "Ġdistribution": 4971,
      "æĭ©": 4972,
      "avy": 4973,
      "Ġdouble": 4974,
      "Ġ:=": 4975,
      "Ġsentence": 4976,
      "Ġhappy": 4977,
      "æ´»åĬ¨": 4978,
      "state": 4979,
      "ĠÐ¼Ð¾": 4980,
      "CC": 4981,
      "åĽŃ": 4982,
      "ĠJust": 4983,
      "èģĮ": 4984,
      "Ġcapt": 4985,
      "chan": 4986,
      "Ġlas": 4987,
      "Ġlabel": 4988,
      "Ġwhom": 4989,
      "conf": 4990,
      "create": 4991,
      ".}": 4992,
      "ĠID": 4993,
      "Ġcollect": 4994,
      "Ġoffice": 4995,
      "æķĻèĤ²": 4996,
      "ä¸ĸçķĮ": 4997,
      "Code": 4998,
      "ously": 4999,
      "ç©¶": 5000,
      "Ġemail": 5001,
      "****************": 5002,
      "çĬ¶": 5003,
      "MA": 5004,
      "rench": 5005,
      "Ġrefer": 5006,
      "Ġsetting": 5007,
      "block": 5008,
      "Ġtypes": 5009,
      "ufact": 5010,
      "eks": 5011,
      "Ġrole": 5012,
      "Ġdistance": 5013,
      "Ġgoes": 5014,
      "what": 5015,
      "vec": 5016,
      "åİĭ": 5017,
      "Ġanyone": 5018,
      "æĻº": 5019,
      "Ġcy": 5020,
      "Ã½": 5021,
      "wide": 5022,
      "Ġitems": 5023,
      "Ġsometimes": 5024,
      "Ġdog": 5025,
      "acing": 5026,
      "oul": 5027,
      "ements": 5028,
      "ĠChar": 5029,
      "Ġdead": 5030,
      "iers": 5031,
      "Ġandroid": 5032,
      "Ġcompos": 5033,
      ".]": 5034,
      "Att": 5035,
      "UL": 5036,
      "Service": 5037,
      "éĿĴ": 5038,
      "nic": 5039,
      "Ġpercent": 5040,
      "ĠEls": 5041,
      "overline": 5042,
      "Ġserve": 5043,
      "å±ŀ": 5044,
      "After": 5045,
      "she": 5046,
      "ĠKing": 5047,
      "ĠTHE": 5048,
      "åĳ³": 5049,
      "Ġ(!": 5050,
      "ights": 5051,
      "Ġ->": 5052,
      "åĳ¢": 5053,
      "ÑĤÐµÐ»": 5054,
      "orithm": 5055,
      "option": 5056,
      "lient": 5057,
      "Ġdivers": 5058,
      "ç¤¾ä¼ļ": 5059,
      "varphi": 5060,
      "ĠJo": 5061,
      "Big": 5062,
      "apache": 5063,
      "Ġhour": 5064,
      "Ġtim": 5065,
      "itar": 5066,
      "ĠHer": 5067,
      "Ġnor": 5068,
      "Out": 5069,
      "pan": 5070,
      "ĠSun": 5071,
      "Array": 5072,
      "å°Ķ": 5073,
      "Ġmix": 5074,
      "Ġgirl": 5075,
      "Ġexperi": 5076,
      "ĠIS": 5077,
      "unk": 5078,
      "Ġpassed": 5079,
      "Ġprior": 5080,
      "content": 5081,
      "requ": 5082,
      "Ġindustry": 5083,
      "eturn": 5084,
      "Ġexcept": 5085,
      "hol": 5086,
      "xy": 5087,
      "åº·": 5088,
      "Ġjava": 5089,
      "Ġengine": 5090,
      "bolds": 5091,
      "enced": 5092,
      "å£°": 5093,
      "OP": 5094,
      "Ġsaf": 5095,
      "Ġexactly": 5096,
      "éĩįè¦ģ": 5097,
      "circ": 5098,
      "pat": 5099,
      "ocol": 5100,
      "ç»ıæµİ": 5101,
      "aste": 5102,
      "igo": 5103,
      "inally": 5104,
      "boldsymbol": 5105,
      "Ġcand": 5106,
      "aches": 5107,
      "urance": 5108,
      "Ġcateg": 5109,
      "ĠStates": 5110,
      "eix": 5111,
      "æĮī": 5112,
      "Ð½Ð¾ÑģÑĤ": 5113,
      "Ġjud": 5114,
      "æŁĲ": 5115,
      "his": 5116,
      "Reg": 5117,
      "ä½¿çĶ¨": 5118,
      "frak": 5119,
      "Ġprevent": 5120,
      "Ġideas": 5121,
      "Ġsrc": 5122,
      "Ġciut": 5123,
      "query": 5124,
      "alle": 5125,
      "æ¥": 5126,
      "Ġdetect": 5127,
      "Ð´Ñĥ": 5128,
      "ĠSee": 5129,
      "Per": 5130,
      "Ġuses": 5131,
      "ql": 5132,
      "xx": 5133,
      "Ġcurrently": 5134,
      "Ġtowards": 5135,
      "Ġvoice": 5136,
      "Ġaverage": 5137,
      "Table": 5138,
      "Ġanys": 5139,
      "overn": 5140,
      "Ġball": 5141,
      "&\\": 5142,
      "ç¦ı": 5143,
      "Ġfeet": 5144,
      "éĢīæĭ©": 5145,
      "idge": 5146,
      "Log": 5147,
      "ÄĽ": 5148,
      "Ġsupply": 5149,
      "çļ®": 5150,
      "Ġsold": 5151,
      "[\\": 5152,
      "Size": 5153,
      "IV": 5154,
      "ĠLond": 5155,
      "gn": 5156,
      "ĠLord": 5157,
      "Ġtransform": 5158,
      "éħĴ": 5159,
      "Ġcop": 5160,
      "Ġviol": 5161,
      "Ġquery": 5162,
      "Ġcook": 5163,
      "vey": 5164,
      "Trans": 5165,
      "Ġprofessional": 5166,
      "Ġoffers": 5167,
      "Ġworked": 5168,
      "Hand": 5169,
      "Ġglobal": 5170,
      "Ġeren": 5171,
      "iday": 5172,
      "Ġdeb": 5173,
      "Ġparameter": 5174,
      "Ġremember": 5175,
      "éĤ£ä¹Ī": 5176,
      "Ġcompar": 5177,
      "ĠSouth": 5178,
      "uge": 5179,
      "Ġinn": 5180,
      "Ġallows": 5181,
      "Ġbatter": 5182,
      "ĠCity": 5183,
      "itc": 5184,
      "Ġcell": 5185,
      "Ġcomfort": 5186,
      "ili": 5187,
      "attle": 5188,
      "Ġlate": 5189,
      "ĠPC": 5190,
      "Ġimm": 5191,
      "Ġoccur": 5192,
      "Ġprep": 5193,
      "ĠEs": 5194,
      "ological": 5195,
      "Ġdepart": 5196,
      "Ġhundred": 5197,
      "å®īåħ¨": 5198,
      "éĻį": 5199,
      "Ġfeed": 5200,
      "ques": 5201,
      "Ġcatal": 5202,
      "ĠSch": 5203,
      "},\\": 5204,
      "soft": 5205,
      "Ġforce": 5206,
      "ç¾¤": 5207,
      "uffer": 5208,
      "ersion": 5209,
      ",--": 5210,
      "Ġuns": 5211,
      "Ġcompanies": 5212,
      "mas": 5213,
      "ĠMiss": 5214,
      "grad": 5215,
      "Ġperhaps": 5216,
      "Est": 5217,
      "igation": 5218,
      "Ġreceive": 5219,
      "ration": 5220,
      "Ð±Ð°": 5221,
      "hline": 5222,
      "Ġenter": 5223,
      "ĠRev": 5224,
      "Ġship": 5225,
      "ĠNorth": 5226,
      "flow": 5227,
      "active": 5228,
      "å¡": 5229,
      "reet": 5230,
      "ĠMark": 5231,
      "Ġdif": 5232,
      "////////": 5233,
      "ancial": 5234,
      "ĠÑĨ": 5235,
      "Ġrandom": 5236,
      "Ġcharg": 5237,
      "ĠCatal": 5238,
      "ĠAut": 5239,
      "ini": 5240,
      "ĠĠĠĠĠĠĠĠĠĠĠĠĠĠĠĠĠ": 5241,
      "é¸": 5242,
      "FI": 5243,
      "Ġded": 5244,
      "tica": 5245,
      "èĻ½": 5246,
      "ecause": 5247,
      "pret": 5248,
      "Ġnone": 5249,
      "ĠBrit": 5250,
      "System": 5251,
      "unction": 5252,
      "Ġphone": 5253,
      "Ġalone": 5254,
      "ĠPres": 5255,
      "Ġthrow": 5256,
      "foot": 5257,
      "Ġmulti": 5258,
      "Ġmanagement": 5259,
      "æŀĹ": 5260,
      "ROM": 5261,
      "è¯Ń": 5262,
      "argin": 5263,
      "åħħ": 5264,
      "Ġagre": 5265,
      "Ġtask": 5266,
      "åŃ¦çĶŁ": 5267,
      "è´Ń": 5268,
      "åįĬ": 5269,
      ",'": 5270,
      "local": 5271,
      "bra": 5272,
      "ĠMc": 5273,
      "itable": 5274,
      "Ð¸Ð»": 5275,
      "}).": 5276,
      "ä½ľä¸º": 5277,
      "Ġtool": 5278,
      "Ġtal": 5279,
      "itter": 5280,
      "atge": 5281,
      "Ġimages": 5282,
      "Ġcomment": 5283,
      "sf": 5284,
      "ĠDE": 5285,
      "sole": 5286,
      "ÐĿ": 5287,
      "Ġcompl": 5288,
      "ä¼¤": 5289,
      "åĲ¬": 5290,
      "pol": 5291,
      "install": 5292,
      "Ð±Ðµ": 5293,
      "cap": 5294,
      "ĠGerm": 5295,
      "Ġconcern": 5296,
      "ĠHar": 5297,
      "Ġproperties": 5298,
      "Ġgold": 5299,
      "cing": 5300,
      "include": 5301,
      "Ġcenter": 5302,
      "mark": 5303,
      "LECT": 5304,
      "encies": 5305,
      "Ġrelationship": 5306,
      "iments": 5307,
      "lin": 5308,
      "Manager": 5309,
      "Ġaltern": 5310,
      "Ġstreng": 5311,
      "Ġincludes": 5312,
      "izes": 5313,
      "ĠAnt": 5314,
      "Ġphysical": 5315,
      "button": 5316,
      ")^": 5317,
      "ÑĮ": 5318,
      "åł": 5319,
      "ä¸¥": 5320,
      "Ġnumer": 5321,
      "Ġbecame": 5322,
      "atically": 5323,
      "uda": 5324,
      "dered": 5325,
      "åĩºçİ°": 5326,
      "ĠSec": 5327,
      "Inter": 5328,
      "Ġassociated": 5329,
      "Ġtree": 5330,
      "Ġabsol": 5331,
      "Ġresol": 5332,
      "è¿ĺæľī": 5333,
      "server": 5334,
      "ĠFig": 5335,
      "ares": 5336,
      "ĠTrans": 5337,
      "iven": 5338,
      "miss": 5339,
      "Ġobtained": 5340,
      "ĠAust": 5341,
      "well": 5342,
      "EE": 5343,
      "ech": 5344,
      "Ġneigh": 5345,
      "ä¾ĭ": 5346,
      "TS": 5347,
      "Ġyes": 5348,
      "aix": 5349,
      "Ġestat": 5350,
      "acional": 5351,
      "ĠDis": 5352,
      "Ġrout": 5353,
      "çĨ": 5354,
      "Ġut": 5355,
      "æ¯į": 5356,
      "Ġanim": 5357,
      "æĿ¿": 5358,
      "Ġaix": 5359,
      "================": 5360,
      "Ġcharge": 5361,
      "âĢł": 5362,
      "uci": 5363,
      "ä¿®": 5364,
      "Ġstra": 5365,
      "Ġsaying": 5366,
      "æī¾": 5367,
      "eful": 5368,
      "idden": 5369,
      "å¯Į": 5370,
      "Ġletter": 5371,
      "ĠOF": 5372,
      "çķĻ": 5373,
      "etc": 5374,
      "Ã±": 5375,
      "ociety": 5376,
      "è®¾è®¡": 5377,
      "uster": 5378,
      "Ġattention": 5379,
      "ĉ</": 5380,
      "ÐµÑĤÐ¾": 5381,
      "Ġarr": 5382,
      "èŀį": 5383,
      "ĠNet": 5384,
      "abs": 5385,
      "orge": 5386,
      "ä¸ŃçļĦ": 5387,
      "åĿļ": 5388,
      "ny": 5389,
      "åİ¿": 5390,
      "Ġwife": 5391,
      "aily": 5392,
      "Ġhomes": 5393,
      "æĿİ": 5394,
      "Ġstar": 5395,
      "æ£Ģ": 5396,
      "Ġquickly": 5397,
      "å±Ĥ": 5398,
      "Ð¶Ð¸": 5399,
      "ĠÐºÑĬ": 5400,
      "define": 5401,
      "Ġtouch": 5402,
      "Message": 5403,
      "raint": 5404,
      "Ġdesigned": 5405,
      "Ġcele": 5406,
      "Ġdurant": 5407,
      "ja": 5408,
      "Ġwind": 5409,
      "Ġcontains": 5410,
      "Ġsurpr": 5411,
      "DB": 5412,
      "AA": 5413,
      "mo": 5414,
      "åĿĩ": 5415,
      "mathfrak": 5416,
      "ibly": 5417,
      "Ġgone": 5418,
      "iring": 5419,
      "äºĨä¸Ģ": 5420,
      "Ġaf": 5421,
      "è·Ł": 5422,
      "ĠÐľÐ°": 5423,
      "Ġsecurity": 5424,
      "å½±åĵį": 5425,
      "Ġled": 5426,
      "ĠWorld": 5427,
      "Ġaccur": 5428,
      "adors": 5429,
      "ĠHol": 5430,
      "éŁ³": 5431,
      "çĽĬ": 5432,
      "ĠMrs": 5433,
      "æĺ¥": 5434,
      "Ġpull": 5435,
      "Ð²ÑĬÑĢ": 5436,
      "Ġsituation": 5437,
      "Ġsurface": 5438,
      "Ġproced": 5439,
      "ĠSw": 5440,
      "Ġrisk": 5441,
      "Ġtrust": 5442,
      "åºĹ": 5443,
      "ĠNe": 5444,
      "isme": 5445,
      "Ġbur": 5446,
      "Ġconvert": 5447,
      "ä¹ĭåĲİ": 5448,
      "ç®Ģ": 5449,
      "ipe": 5450,
      "Ġrow": 5451,
      "çŁ³": 5452,
      "Ġprimer": 5453,
      "Ġimpact": 5454,
      "Ġdriver": 5455,
      "post": 5456,
      "Ġcouple": 5457,
      "Ġareas": 5458,
      "ÅĻ": 5459,
      "Ġrom": 5460,
      "Ġcontract": 5461,
      "Ġensure": 5462,
      "Ġeffective": 5463,
      "Ġchanged": 5464,
      "Ġrecently": 5465,
      "ĠMad": 5466,
      "Ġactive": 5467,
      "year": 5468,
      "ube": 5469,
      "ancy": 5470,
      "Ġmort": 5471,
      "Es": 5472,
      "}}$": 5473,
      "æķħ": 5474,
      "ocket": 5475,
      "Ġsleep": 5476,
      "äºī": 5477,
      "ugh": 5478,
      "how": 5479,
      "Ġreference": 5480,
      "image": 5481,
      "Ġma": 5482,
      "ĠSchool": 5483,
      "Ġheight": 5484,
      "Ġinteresting": 5485,
      "Rec": 5486,
      "Ġpurpose": 5487,
      "è´¢": 5488,
      "Ġdirection": 5489,
      "They": 5490,
      "ÑĢÐµÐ´": 5491,
      "Ġmateix": 5492,
      "arily": 5493,
      "é¡¹çĽ®": 5494,
      "Ġtechnology": 5495,
      "Ġfollowed": 5496,
      "Ġresta": 5497,
      "ĠPat": 5498,
      "dat": 5499,
      "mes": 5500,
      "Ġblue": 5501,
      "Ġdep": 5502,
      "åĪĴ": 5503,
      "ĠPal": 5504,
      "Ġwide": 5505,
      "ynt": 5506,
      "ĠAug": 5507,
      "cs": 5508,
      "long": 5509,
      "åĩı": 5510,
      "gt": 5511,
      "ĠSince": 5512,
      "ptions": 5513,
      "Ġeveryone": 5514,
      "Ġbooks": 5515,
      "Our": 5516,
      "Ġstatus": 5517,
      "Ġchance": 5518,
      "TH": 5519,
      "MP": 5520,
      "Ġdemand": 5521,
      "Ġcompletely": 5522,
      "æĬķèµĦ": 5523,
      "core": 5524,
      "ivil": 5525,
      "Ġep": 5526,
      "æĵ": 5527,
      "å±ħ": 5528,
      "åħļ": 5529,
      "ĠUp": 5530,
      "ÑīÐ¸": 5531,
      "Ġsea": 5532,
      "Ġmi": 5533,
      "rep": 5534,
      "Ġcoun": 5535,
      "åŃ£": 5536,
      "å²ģ": 5537,
      "Ġnice": 5538,
      "Ġhair": 5539,
      "apping": 5540,
      "æĢİ": 5541,
      "ĠAng": 5542,
      "åĶ®": 5543,
      "èĮĥ": 5544,
      "Ġstream": 5545,
      "ÑħÐ¾": 5546,
      "éĶĻ": 5547,
      "é¦Ļ": 5548,
      "èīº": 5549,
      "mitted": 5550,
      "ĠUSB": 5551,
      "fs": 5552,
      "è¿Ļç§į": 5553,
      "Ġshop": 5554,
      "Ġdisk": 5555,
      "web": 5556,
      "ameter": 5557,
      "ĠHigh": 5558,
      "Ġcool": 5559,
      "Ġ===": 5560,
      "Ġpractice": 5561,
      "ĠNational": 5562,
      "uts": 5563,
      "ĠSE": 5564,
      "ĠĠĠĠĠĠĠĠĠĠĠĠĠĠĠĠĠĠĠĠĠĠĠĠĠĠĠĠĠĠĠ": 5565,
      "Ġsolutions": 5566,
      "ĠPort": 5567,
      "Che": 5568,
      "ensions": 5569,
      "struct": 5570,
      "Ðŀ": 5571,
      "Ġrelig": 5572,
      "Ġcustomers": 5573,
      "ford": 5574,
      "Ġgreen": 5575,
      "Ġmaintain": 5576,
      "Ġrecommend": 5577,
      "Ġpen": 5578,
      "Ġlarger": 5579,
      "å®³": 5580,
      "ĠDav": 5581,
      "å°½": 5582,
      "Ġfresh": 5583,
      "pa": 5584,
      "css": 5585,
      "Ġconduct": 5586,
      "Ġpolicy": 5587,
      "Ġtheory": 5588,
      "Ġ__": 5589,
      "è¯Ħ": 5590,
      "Ġvariable": 5591,
      "Ġconstruct": 5592,
      "æĺ¯ä¸Ģ": 5593,
      "ĠAcc": 5594,
      "Ġfully": 5595,
      "Ġtip": 5596,
      "ĠAND": 5597,
      "Ġincluded": 5598,
      "page": 5599,
      "æĿĲ": 5600,
      "Ġthous": 5601,
      "ocation": 5602,
      "Ġstru": 5603,
      "ä»¥åıĬ": 5604,
      "ĠGoogle": 5605,
      "Ġunit": 5606,
      "è§Ĵ": 5607,
      "Â»": 5608,
      "Ġpal": 5609,
      "Ġsteps": 5610,
      "Ġrat": 5611,
      "Ġmember": 5612,
      "ç¾İåĽ½": 5613,
      "uct": 5614,
      "NS": 5615,
      "jo": 5616,
      "Ġfigure": 5617,
      "poss": 5618,
      "Ð¸Ð·": 5619,
      "run": 5620,
      "car": 5621,
      "main": 5622,
      "ÑĤÑĥ": 5623,
      "Count": 5624,
      "small": 5625,
      "Ġevalu": 5626,
      "è¡¥": 5627,
      "Ġterr": 5628,
      "Ġuseful": 5629,
      "Ass": 5630,
      "ĠStud": 5631,
      "yond": 5632,
      "Ġfields": 5633,
      "Ġbill": 5634,
      "Ġprogress": 5635,
      "åı¤": 5636,
      "Ġproof": 5637,
      "Ġpartition": 5638,
      "æ¯Ķè¾ĥ": 5639,
      "é¾Ļ": 5640,
      "ÑĤÑĢÐ°": 5641,
      "langle": 5642,
      "é»ĳ": 5643,
      "dir": 5644,
      "ĠSan": 5645,
      "Date": 5646,
      "å¿µ": 5647,
      "çİ©": 5648,
      "ä¸»è¦ģ": 5649,
      "has": 5650,
      "Ġreturned": 5651,
      "Ġcarry": 5652,
      "ĠWest": 5653,
      "Ġsong": 5654,
      "model": 5655,
      "æľĭ": 5656,
      "åħį": 5657,
      "augh": 5658,
      "åĪĿ": 5659,
      "tered": 5660,
      "Yes": 5661,
      "åĪĹ": 5662,
      "Ġfear": 5663,
      "atever": 5664,
      "åĩ»": 5665,
      "ĠRem": 5666,
      "Ġmess": 5667,
      "æŃ»": 5668,
      "åıĳçİ°": 5669,
      "Ġslight": 5670,
      "otes": 5671,
      "ä¸įä¼ļ": 5672,
      "assert": 5673,
      "èĢĮä¸Ķ": 5674,
      "??": 5675,
      "Ġformer": 5676,
      "ÑģÑĤÐµ": 5677,
      "ÐµÐº": 5678,
      "ico": 5679,
      "semb": 5680,
      "embre": 5681,
      "Ġfet": 5682,
      "Ġmunicip": 5683,
      "Ġprincipal": 5684,
      "aquest": 5685,
      "names": 5686,
      "æī¿": 5687,
      "eria": 5688,
      "Call": 5689,
      "ĠÐĹ": 5690,
      "FA": 5691,
      "è®²": 5692,
      "ashing": 5693,
      "wood": 5694,
      "Ġincl": 5695,
      "Ġpair": 5696,
      "Ġsav": 5697,
      "Ġgets": 5698,
      "æĸĩåĮĸ": 5699,
      "Ġphase": 5700,
      "itation": 5701,
      "Ġestaven": 5702,
      "Ġdynam": 5703,
      "unities": 5704,
      "Lambda": 5705,
      "textit": 5706,
      "ldots": 5707,
      "åľŁ": 5708,
      "æĿ¥çļĦ": 5709,
      "èŃ": 5710,
      "cons": 5711,
      "Ġmal": 5712,
      "Ð²Ñı": 5713,
      "çĽ®åīį": 5714,
      "Ġquar": 5715,
      "Color": 5716,
      "ishing": 5717,
      "Ġunivers": 5718,
      "Ġveh": 5719,
      "ua": 5720,
      "å»ºè®¾": 5721,
      "note": 5722,
      "Sub": 5723,
      "Ġstaff": 5724,
      "lang": 5725,
      "User": 5726,
      "Lay": 5727,
      "had": 5728,
      "eny": 5729,
      "Ġsafe": 5730,
      "ialog": 5731,
      "Ġaltres": 5732,
      "Ġboy": 5733,
      "Ġdescribed": 5734,
      "inct": 5735,
      "Ġbottom": 5736,
      "ABLE": 5737,
      "Ġmaster": 5738,
      "ÑģÐ½Ð¾": 5739,
      "ĉ&": 5740,
      "Ġinsp": 5741,
      "ulations": 5742,
      "Ġpicture": 5743,
      "iled": 5744,
      "ounds": 5745,
      "Ġmer": 5746,
      "appa": 5747,
      "Ġfont": 5748,
      "Ġgiving": 5749,
      "Ġnumbers": 5750,
      "aker": 5751,
      "Ġweeks": 5752,
      "é²": 5753,
      "ĠApr": 5754,
      "hern": 5755,
      "exp": 5756,
      "Ġdegree": 5757,
      "ÑĬÐ»Ð³Ð°ÑĢ": 5758,
      "çĽĺ": 5759,
      "Ġscale": 5760,
      "Ġexpression": 5761,
      "ĠPost": 5762,
      "Ġcert": 5763,
      "Ġthinking": 5764,
      "det": 5765,
      "Ġeffects": 5766,
      "irth": 5767,
      "èĥ½å¤Ł": 5768,
      "rief": 5769,
      "Ġcatch": 5770,
      "UE": 5771,
      "UM": 5772,
      "ĠRed": 5773,
      "works": 5774,
      "atory": 5775,
      "asons": 5776,
      "Ð¶Ð´Ð°": 5777,
      "Ġcry": 5778,
      "Ġacqu": 5779,
      "ĠGeneral": 5780,
      "éĥ¨åĪĨ": 5781,
      "åŃ¦ä¹ł": 5782,
      "arden": 5783,
      "aby": 5784,
      "åŁŁ": 5785,
      "Ġspirit": 5786,
      "rive": 5787,
      "Ġcomponent": 5788,
      "build": 5789,
      "ĠNOT": 5790,
      "Ġamaz": 5791,
      "Ġborder": 5792,
      "æĹħ": 5793,
      "ĠVa": 5794,
      "äººæ°ĳ": 5795,
      "Ġexecut": 5796,
      "urt": 5797,
      "Model": 5798,
      "Ġcollection": 5799,
      "ocr": 5800,
      "Ġmes": 5801,
      "Ġalthough": 5802,
      "ees": 5803,
      "ç³»ç»Ł": 5804,
      "ç¿": 5805,
      "åħ¶å®ŀ": 5806,
      "ĠWhile": 5807,
      "ä¸ĬçļĦ": 5808,
      "Ġbi": 5809,
      "Ġcada": 5810,
      "å¸®": 5811,
      "OW": 5812,
      "deb": 5813,
      "ova": 5814,
      "ĠÐ¼Ð°": 5815,
      "Ġviv": 5816,
      "Ġgas": 5817,
      "aling": 5818,
      "home": 5819,
      "Ġ};": 5820,
      "æ±½": 5821,
      "ĠOct": 5822,
      "cp": 5823,
      "Ð½Ð¸Ðº": 5824,
      "Ġdirectory": 5825,
      "ĠÐĿÐ°": 5826,
      "current": 5827,
      "acer": 5828,
      "Ġhop": 5829,
      "åĨĻ": 5830,
      "åĽ´": 5831,
      "äººåĳĺ": 5832,
      "èŃ¦": 5833,
      "ky": 5834,
      "ĠBro": 5835,
      "Ġpiece": 5836,
      "unes": 5837,
      "rie": 5838,
      "æľĭåıĭ": 5839,
      "Ð¸ÑĤÐµÐ»": 5840,
      "ĉ{": 5841,
      "artment": 5842,
      "ensure": 5843,
      "Ġopportunity": 5844,
      "citep": 5845,
      "Ġbroad": 5846,
      "VER": 5847,
      "æĪĸèĢħ": 5848,
      "look": 5849,
      "ĠÐŁÐ¾": 5850,
      "erences": 5851,
      "ename": 5852,
      "Ġinj": 5853,
      "Ġmanufact": 5854,
      "])": 5855,
      "Ġmatrix": 5856,
      "oma": 5857,
      "Ġzero": 5858,
      "ĠDef": 5859,
      "Ġgroups": 5860,
      "Ġbutton": 5861,
      "sa": 5862,
      "ugin": 5863,
      "]:": 5864,
      "è´Ł": 5865,
      "èĥ½åĬĽ": 5866,
      "ellent": 5867,
      "Ġarm": 5868,
      "Ġrepe": 5869,
      "ÑĦÐ¸": 5870,
      "ä¸įåĲĮ": 5871,
      "Ġstarting": 5872,
      "Ġter": 5873,
      "çŃĸ": 5874,
      "Ġarriv": 5875,
      "ald": 5876,
      "Ġdress": 5877,
      "Ġfort": 5878,
      "case": 5879,
      "orrow": 5880,
      "Ġleading": 5881,
      "ĠRE": 5882,
      "itants": 5883,
      "èĪ¬": 5884,
      "Ġconv": 5885,
      "è¦ģæ±Ĥ": 5886,
      "ka": 5887,
      "Ð²ÐµÐ½": 5888,
      "person": 5889,
      "ĠÐ¿Ðµ": 5890,
      "ĠLes": 5891,
      "pected": 5892,
      "ÐºÐµ": 5893,
      "isi": 5894,
      "Ġign": 5895,
      "ĠList": 5896,
      "Ġbeyond": 5897,
      "Phi": 5898,
      "æ¤": 5899,
      "Can": 5900,
      "Ġlatest": 5901,
      "char": 5902,
      "ĠWhy": 5903,
      "ĠFirst": 5904,
      "ĠSub": 5905,
      "Ġhit": 5906,
      "ĠPark": 5907,
      "Des": 5908,
      "Ġproduction": 5909,
      "google": 5910,
      "ilde": 5911,
      "istics": 5912,
      "Ġroll": 5913,
      "Ġdoubt": 5914,
      "za": 5915,
      "ĠÐ²Ð¸": 5916,
      "arcelona": 5917,
      "å¾ħ": 5918,
      "Ġtruth": 5919,
      "æŃ¢": 5920,
      "çł´": 5921,
      "ĠLondon": 5922,
      "Ġthroughout": 5923,
      "ĠVol": 5924,
      "adem": 5925,
      "oni": 5926,
      "iced": 5927,
      "äºĴ": 5928,
      "Ġequal": 5929,
      "Ġsam": 5930,
      "Ġblood": 5931,
      "oms": 5932,
      "Ġdefine": 5933,
      "Ġreach": 5934,
      "ĠÂ«": 5935,
      "king": 5936,
      "cles": 5937,
      "\\%": 5938,
      "Ġcorresponding": 5939,
      "çīĪ": 5940,
      "Ġedge": 5941,
      "Ġtempor": 5942,
      "ials": 5943,
      "Ġtemperature": 5944,
      "ALL": 5945,
      "Ġcat": 5946,
      "Ġmid": 5947,
      "Ġforma": 5948,
      "Ġapplications": 5949,
      "Ġmicro": 5950,
      "ano": 5951,
      "æĻ®": 5952,
      "child": 5953,
      "actory": 5954,
      "Ġinternal": 5955,
      "only": 5956,
      "TD": 5957,
      "äºļ": 5958,
      "Ġadvant": 5959,
      "open": 5960,
      "Ġrend": 5961,
      "inn": 5962,
      "EX": 5963,
      "Pr": 5964,
      "Client": 5965,
      "fol": 5966,
      "Ġsettings": 5967,
      "ĠSal": 5968,
      "iling": 5969,
      "itchen": 5970,
      "cher": 5971,
      "Ġpued": 5972,
      "actions": 5973,
      "Ġvict": 5974,
      "åįı": 5975,
      "ago": 5976,
      "SP": 5977,
      "ä¸įè¦ģ": 5978,
      "äºĳ": 5979,
      "uary": 5980,
      "ĠSQL": 5981,
      "Ġkept": 5982,
      "dist": 5983,
      "ows": 5984,
      "Ġfailed": 5985,
      "gar": 5986,
      "Ġallowed": 5987,
      "éĵ¶": 5988,
      "ĠHouse": 5989,
      "event": 5990,
      "èµ·æĿ¥": 5991,
      "åįĥ": 5992,
      "Dis": 5993,
      "ä¸¾": 5994,
      "agon": 5995,
      "Query": 5996,
      "ups": 5997,
      ".\\": 5998,
      "Ġcelebr": 5999,
      "è¯»": 6000,
      "åĸĦ": 6001,
      "ÐºÑĥ": 6002,
      "ido": 6003,
      "Ġconfiguration": 6004,
      "house": 6005,
      "èĻ½çĦ¶": 6006,
      "iform": 6007,
      "ague": 6008,
      "æĽ¾": 6009,
      "client": 6010,
      "Ġeye": 6011,
      "sem": 6012,
      "anged": 6013,
      "Ġopin": 6014,
      "othing": 6015,
      "ĠFrench": 6016,
      "Note": 6017,
      "End": 6018,
      "CD": 6019,
      "æ²³": 6020,
      "nabla": 6021,
      "atively": 6022,
      "Oh": 6023,
      "subset": 6024,
      "eline": 6025,
      "Ġgrowth": 6026,
      "Ġessential": 6027,
      "}),": 6028,
      "ĠÑģÑĤÐ°": 6029,
      "åı²": 6030,
      "Ġindeed": 6031,
      "aly": 6032,
      "Ġoffic": 6033,
      "((": 6034,
      "dim": 6035,
      "Ġtreatment": 6036,
      "æıĲä¾Ľ": 6037,
      "Ġja": 6038,
      "Ġearth": 6039,
      "rect": 6040,
      "Ġexterns": 6041,
      "Ð½Ð¾ÑĤÐ¾": 6042,
      "usion": 6043,
      "Ġstraight": 6044,
      "oria": 6045,
      "itors": 6046,
      "ĉ$": 6047,
      "Ð»Ñİ": 6048,
      "Ġassume": 6049,
      "Ġprefer": 6050,
      "Ġgenerally": 6051,
      "æĻļ": 6052,
      "Ġfight": 6053,
      "Ġentry": 6054,
      "UP": 6055,
      "oto": 6056,
      "Ġexists": 6057,
      "çĶ»": 6058,
      "Ġmaximum": 6059,
      "åĲ¦": 6060,
      "lying": 6061,
      "Ġcertainly": 6062,
      "mbox": 6063,
      "kappa": 6064,
      "Ġgent": 6065,
      "å®ĺ": 6066,
      "HT": 6067,
      "Ġmolt": 6068,
      "Ġplaying": 6069,
      "ĠAlso": 6070,
      "Ġequival": 6071,
      "ÑĪÐµ": 6072,
      "Ġappropri": 6073,
      "è¿Ļä¸Ģ": 6074,
      "Ġoptim": 6075,
      "ests": 6076,
      "Ġcapital": 6077,
      "Ġ``": 6078,
      "Ġclosed": 6079,
      "Ġhabitat": 6080,
      "ishes": 6081,
      "Ġserious": 6082,
      "rey": 6083,
      "ĠÐ¿Ð¾Ð´": 6084,
      "Ġvac": 6085,
      "false": 6086,
      "å¿Ĺ": 6087,
      "Ġfactor": 6088,
      "Ġconsult": 6089,
      "Ġeducation": 6090,
      "then": 6091,
      "Ġciutat": 6092,
      "rees": 6093,
      "erior": 6094,
      "Ġhappen": 6095,
      "ĠAmerica": 6096,
      "å¾ĭ": 6097,
      "Enlla": 6098,
      "æ¹ĸ": 6099,
      "çłĶç©¶": 6100,
      "Ġexperiment": 6101,
      "first": 6102,
      "contain": 6103,
      "ĠOS": 6104,
      "isions": 6105,
      "Äį": 6106,
      "roy": 6107,
      "Ab": 6108,
      "çªģ": 6109,
      "Ġlives": 6110,
      "height": 6111,
      "btn": 6112,
      "Ġmechan": 6113,
      "åĲ§": 6114,
      "CK": 6115,
      "Ġapproxim": 6116,
      "ä¸įè¿ĩ": 6117,
      ">&": 6118,
      "ä¸ºäºĨ": 6119,
      "})$": 6120,
      "ĠSol": 6121,
      "Ġcu": 6122,
      "asion": 6123,
      "rase": 6124,
      "Ġlevels": 6125,
      "ĠAc": 6126,
      "Ġfig": 6127,
      "Ġnearly": 6128,
      "PU": 6129,
      "çĽĳ": 6130,
      "Ġfilm": 6131,
      "rd": 6132,
      "Ġvector": 6133,
      "Ġpare": 6134,
      "lier": 6135,
      "Ġappre": 6136,
      "ulate": 6137,
      "Ġprem": 6138,
      "grade": 6139,
      "android": 6140,
      "Ġtres": 6141,
      "Ġheat": 6142,
      "Ġdecided": 6143,
      "AME": 6144,
      "rowser": 6145,
      "Ġgreater": 6146,
      "åįļ": 6147,
      "oted": 6148,
      "Ġjo": 6149,
      "Ġconver": 6150,
      "ĠClass": 6151,
      "itory": 6152,
      "Ġfeeling": 6153,
      "Ġtreball": 6154,
      "igen": 6155,
      "ithub": 6156,
      "itution": 6157,
      "INE": 6158,
      "Ġcold": 6159,
      "bert": 6160,
      "Ġstatement": 6161,
      "Sup": 6162,
      "Ġimmediately": 6163,
      "Ġtools": 6164,
      "åħ´": 6165,
      "Ġmanner": 6166,
      "çĭ¬": 6167,
      "rum": 6168,
      "lig": 6169,
      "Ġcomponents": 6170,
      "Ġplaces": 6171,
      "Ġcomo": 6172,
      "Ġdatas": 6173,
      "Ġfirm": 6174,
      "ĠMarch": 6175,
      "TO": 6176,
      "Ġresources": 6177,
      "ython": 6178,
      "Ð²ÑĢÐ¸": 6179,
      "Hz": 6180,
      "otimes": 6181,
      "omb": 6182,
      "Ġsex": 6183,
      "Ġability": 6184,
      "Ġbank": 6185,
      "ensuremath": 6186,
      "Ġindependent": 6187,
      "Ġpriv": 6188,
      "null": 6189,
      "ris": 6190,
      "æĪı": 6191,
      "Aut": 6192,
      "éĢģ": 6193,
      "oes": 6194,
      "Ġobserved": 6195,
      "åĲ¸": 6196,
      "Ġdiss": 6197,
      "Ġsin": 6198,
      "Ðľ": 6199,
      "çĵ": 6200,
      "Ġsolid": 6201,
      "çıŃ": 6202,
      "æ¿": 6203,
      "Ġ;": 6204,
      "sql": 6205,
      "ĠCenter": 6206,
      "Ġgoal": 6207,
      "Ġcompared": 6208,
      "Ġing": 6209,
      "è¯ī": 6210,
      "Ġdevices": 6211,
      "Ð½Ð¸ÐµÑĤÐ¾": 6212,
      "ä¸ªäºº": 6213,
      "åĸľæ¬¢": 6214,
      "ĠÐ¿ÑĢÐµÐ´": 6215,
      "level": 6216,
      "mail": 6217,
      "Ġconsum": 6218,
      "Ġskin": 6219,
      "åº§": 6220,
      "}}{": 6221,
      "Ġanaly": 6222,
      "èĤī": 6223,
      "erve": 6224,
      "Ġoperation": 6225,
      "Ġfilter": 6226,
      "ima": 6227,
      "åģľ": 6228,
      "cel": 6229,
      "Ġsets": 6230,
      "Ġmodule": 6231,
      "SQL": 6232,
      "Ð¼Ð°Ð½": 6233,
      "anys": 6234,
      "Ġrequires": 6235,
      "å·®": 6236,
      "Ġsummer": 6237,
      "åħ¶ä»ĸ": 6238,
      "æĸ¹å¼ı": 6239,
      "åºľ": 6240,
      "è¯¾": 6241,
      "ĠMag": 6242,
      "Ġbrand": 6243,
      "Ġmeeting": 6244,
      "rer": 6245,
      "Ġoil": 6246,
      "ĠWeb": 6247,
      "hest": 6248,
      "Ġcustomer": 6249,
      "istry": 6250,
      "Ġbrother": 6251,
      "ctors": 6252,
      "](": 6253,
      "icense": 6254,
      "Ġrelease": 6255,
      "izer": 6256,
      "ÑĦÐ¸Ñı": 6257,
      "sy": 6258,
      "Ġplatform": 6259,
      "äº«": 6260,
      "ä¿¡æģ¯": 6261,
      "çŁŃ": 6262,
      "Ġkernel": 6263,
      "Ġtend": 6264,
      "Ġvariety": 6265,
      "Ġappears": 6266,
      "Ġdream": 6267,
      "å¸Į": 6268,
      "Ġofficial": 6269,
      "Ġlayer": 6270,
      "åı¦": 6271,
      "åŁİå¸Ĥ": 6272,
      "æł¸": 6273,
      "ournal": 6274,
      "æ¦": 6275,
      "dot": 6276,
      "Ð²Ð°ÑĤÐ°": 6277,
      "Ġbeginning": 6278,
      "have": 6279,
      "ĠMart": 6280,
      "cos": 6281,
      "Ġstd": 6282,
      "Ġauto": 6283,
      "Ġwarm": 6284,
      "âĢ¢": 6285,
      "Ġlocated": 6286,
      "Ġexisting": 6287,
      "åį¡": 6288,
      "Ġselected": 6289,
      "Ġrule": 6290,
      "å¤§åŃ¦": 6291,
      "Ġgrand": 6292,
      "Ġcos": 6293,
      "[\"": 6294,
      "ĠAny": 6295,
      "uls": 6296,
      "ĠMus": 6297,
      "connect": 6298,
      "Ġrot": 6299,
      "ĠMor": 6300,
      "ĠOpen": 6301,
      "zy": 6302,
      "plicit": 6303,
      "spec": 6304,
      "Ġvel": 6305,
      "First": 6306,
      "Ð»ÐµÐ½": 6307,
      "method": 6308,
      "Ġtill": 6309,
      "ĠBarcelona": 6310,
      "Ġinterface": 6311,
      "Ġlinear": 6312,
      "Ġstrength": 6313,
      "ieved": 6314,
      "Ġapplied": 6315,
      "æĭħ": 6316,
      "png": 6317,
      "ĠCamp": 6318,
      "ulated": 6319,
      "Ġgain": 6320,
      "ÑĩÐ°ÑģÑĤ": 6321,
      "undle": 6322,
      "Override": 6323,
      "Ġwindows": 6324,
      "Select": 6325,
      "Ġpredict": 6326,
      "Ġcentral": 6327,
      "Ġpow": 6328,
      "antic": 6329,
      "ĠLem": 6330,
      "Ġ]": 6331,
      "Ġsample": 6332,
      "pc": 6333,
      "Ġfinally": 6334,
      "Ġfinancial": 6335,
      "aled": 6336,
      "Ġequation": 6337,
      "\\|": 6338,
      "Ġrob": 6339,
      "è®¤ä¸º": 6340,
      "æµĭ": 6341,
      "çĪ¶": 6342,
      "Ġrele": 6343,
      "æ½": 6344,
      "context": 6345,
      "Ġmentioned": 6346,
      "Ġachieve": 6347,
      "levant": 6348,
      "Property": 6349,
      "ĠBlack": 6350,
      "Ġstage": 6351,
      "%,": 6352,
      "ds": 6353,
      "Ġdecision": 6354,
      "last": 6355,
      "Ġmitj": 6356,
      "Ġrespectively": 6357,
      "ĠÐļÐ°": 6358,
      "ael": 6359,
      "/\\": 6360,
      "appro": 6361,
      "èıľ": 6362,
      "Ġsudden": 6363,
      "oding": 6364,
      "è¡¨ç¤º": 6365,
      "tics": 6366,
      "ĠOut": 6367,
      "ĠWar": 6368,
      "amily": 6369,
      "Ġmenu": 6370,
      "ÐºÐ°ÑĤÐ°": 6371,
      "=\"#": 6372,
      "æĦ¿": 6373,
      "Ġtransfer": 6374,
      "Ġwire": 6375,
      "Ġhus": 6376,
      "=\"../../../../": 6377,
      "Ġproposed": 6378,
      "EL": 6379,
      "img": 6380,
      "æį¢": 6381,
      "Ġinfo": 6382,
      "Ġhighly": 6383,
      "Ġguess": 6384,
      "itary": 6385,
      "find": 6386,
      "icks": 6387,
      "aris": 6388,
      "Ġmist": 6389,
      "initely": 6390,
      "Sigma": 6391,
      "ville": 6392,
      "Ġecho": 6393,
      "ç¼ĸ": 6394,
      "Ð»Ð¸Ñı": 6395,
      "èĽ": 6396,
      "PC": 6397,
      "Ġfrequency": 6398,
      "enge": 6399,
      "ĠÑģÐ»ÐµÐ´": 6400,
      "æĭ¿": 6401,
      "SC": 6402,
      "arant": 6403,
      "Ġking": 6404,
      "Ġconcept": 6405,
      "Ġconstruction": 6406,
      "åºĶè¯¥": 6407,
      "ĠST": 6408,
      "ä¸ĢçĽ´": 6409,
      "static": 6410,
      "Ġdescription": 6411,
      "service": 6412,
      "ĠApple": 6413,
      "Ġextrem": 6414,
      "Ġlimited": 6415,
      "ributed": 6416,
      "Ġjoin": 6417,
      "åĺ": 6418,
      "\").": 6419,
      "package": 6420,
      "Ġfem": 6421,
      "Ġdensity": 6422,
      "Fil": 6423,
      "ĉĉĉĉĉĉ": 6424,
      "Ġmas": 6425,
      "rote": 6426,
      "ĠLib": 6427,
      "Ġhandle": 6428,
      "emplate": 6429,
      "Ġconstru": 6430,
      "Net": 6431,
      "Ð¼Ð²ÑĢÐ¸": 6432,
      "ĠFranc": 6433,
      "Ġexerc": 6434,
      "ĠEngland": 6435,
      "yles": 6436,
      "Ġbattery": 6437,
      "Bar": 6438,
      "dots": 6439,
      "ÐºÑĤÐ¾": 6440,
      "({": 6441,
      "Ġclasses": 6442,
      "Part": 6443,
      ",-": 6444,
      "Ġkids": 6445,
      "ç»Ŀ": 6446,
      "rar": 6447,
      "å©ļ": 6448,
      "len": 6449,
      "orph": 6450,
      "write": 6451,
      "rat": 6452,
      "ingu": 6453,
      "Ġgal": 6454,
      "ç»ĩ": 6455,
      "ĠPlease": 6456,
      "Ġhar": 6457,
      "è´§": 6458,
      "Ġbecomes": 6459,
      "while": 6460,
      "display": 6461,
      "Ġbasis": 6462,
      "åıĳçĶŁ": 6463,
      "Ġbright": 6464,
      "Ġtor": 6465,
      "ntic": 6466,
      "ç¥¨": 6467,
      "Ð¸ÑĤÐ¾": 6468,
      "Ġdesp": 6469,
      "ĠRead": 6470,
      "acle": 6471,
      "pers": 6472,
      "Ġnotice": 6473,
      "Ġnil": 6474,
      "ĠAre": 6475,
      "ÑīÐ¾": 6476,
      "pet": 6477,
      "ashion": 6478,
      "apped": 6479,
      "centering": 6480,
      "æ¿Ģ": 6481,
      "cha": 6482,
      "ç´§": 6483,
      "Ġhttps": 6484,
      "num": 6485,
      "Ġsecret": 6486,
      "Ġsudo": 6487,
      "ĠServer": 6488,
      "æīĢæľī": 6489,
      "ä¸Ģæł·": 6490,
      "Ġdemon": 6491,
      "flo": 6492,
      "ĠBen": 6493,
      "ÑĪÐ¸": 6494,
      "ĠPhil": 6495,
      "ĠÃº": 6496,
      "Line": 6497,
      "ĠData": 6498,
      "Ext": 6499,
      "Method": 6500,
      "However": 6501,
      "ĠSM": 6502,
      "ributes": 6503,
      "raction": 6504,
      "RA": 6505,
      "DF": 6506,
      "ä½łçļĦ": 6507,
      "Ġstuff": 6508,
      "ĠAquest": 6509,
      "ĠON": 6510,
      "ĠApril": 6511,
      "CON": 6512,
      "pling": 6513,
      "Ġclients": 6514,
      "adding": 6515,
      "Ġmiddle": 6516,
      "ĠTest": 6517,
      "Ġcourt": 6518,
      "ĠÑĢÐ¾": 6519,
      "ifying": 6520,
      "Response": 6521,
      "Ġpassword": 6522,
      "Ġ<<": 6523,
      "Ġeight": 6524,
      "Ġdefinition": 6525,
      "him": 6526,
      "Ġincor": 6527,
      "Ġobj": 6528,
      "Ġlock": 6529,
      "Ġvolume": 6530,
      "Ġampl": 6531,
      "ĠÐ£": 6532,
      "æĤ£": 6533,
      "Ġdaugh": 6534,
      "Start": 6535,
      "ĠStr": 6536,
      "ibli": 6537,
      "Ġprimera": 6538,
      "å®¤": 6539,
      "Ġeat": 6540,
      "Ð½Ð³": 6541,
      "github": 6542,
      "Ġrules": 6543,
      "rely": 6544,
      "Input": 6545,
      "Ġmoving": 6546,
      "Ġcab": 6547,
      "pdf": 6548,
      "Ġcru": 6549,
      "ä¸Ńå¿ĥ": 6550,
      "èĴ": 6551,
      "åĪļ": 6552,
      "request": 6553,
      "Ġinvestig": 6554,
      "Ġinterested": 6555,
      "ĠHam": 6556,
      "frame": 6557,
      "Ġcredit": 6558,
      "ĠRo": 6559,
      "rics": 6560,
      "è¡Įä¸ļ": 6561,
      "Ġtenia": 6562,
      "ç»§": 6563,
      "ĠJune": 6564,
      "Ġnoise": 6565,
      "PO": 6566,
      "Ð¾Ð½Ð°": 6567,
      "Why": 6568,
      "ĠTV": 6569,
      "ords": 6570,
      "Ġmaterials": 6571,
      "Source": 6572,
      "ober": 6573,
      "widet": 6574,
      "Ġenem": 6575,
      "ĠEvery": 6576,
      "ERT": 6577,
      "Ġsales": 6578,
      "éģĩ": 6579,
      "Ġreve": 6580,
      "Ġbud": 6581,
      "ĠAir": 6582,
      "Ġdigital": 6583,
      "Ġsweet": 6584,
      "Ġconvers": 6585,
      "Ġweak": 6586,
      "ĠThus": 6587,
      "Ġscen": 6588,
      "æķ°æį®": 6589,
      "SD": 6590,
      "Ġinvolved": 6591,
      "Ġplayers": 6592,
      "Ġmiles": 6593,
      "urrent": 6594,
      "ĠSept": 6595,
      "ĠArt": 6596,
      "Ġfloor": 6597,
      "ĠRuss": 6598,
      "ĠGovern": 6599,
      "Ġprograms": 6600,
      "cks": 6601,
      "ims": 6602,
      "cia": 6603,
      "Ġselection": 6604,
      "Ġpresented": 6605,
      "Ġrev": 6606,
      "inte": 6607,
      "ĠÐºÑĢÐ°": 6608,
      "clusion": 6609,
      "Ġwel": 6610,
      "Ġsmaller": 6611,
      "Ġcandid": 6612,
      "ums": 6613,
      "Ġerrors": 6614,
      "hold": 6615,
      "Ġotherwise": 6616,
      "ĠDay": 6617,
      "ÐĺÐ·": 6618,
      "Stream": 6619,
      "prime": 6620,
      "ln": 6621,
      "çĶļ": 6622,
      "Str": 6623,
      "Ġmanera": 6624,
      "é£ŀ": 6625,
      "Ġstood": 6626,
      "swe": 6627,
      "Ġhappened": 6628,
      "free": 6629,
      "Ġbul": 6630,
      "Ġvirtual": 6631,
      "Ġobjects": 6632,
      "fill": 6633,
      "Image": 6634,
      ")]": 6635,
      "Well": 6636,
      "inding": 6637,
      "night": 6638,
      "inger": 6639,
      "Ġnegative": 6640,
      "ä¸Ģèµ·": 6641,
      "Ġmaybe": 6642,
      "Ġteac": 6643,
      "they": 6644,
      "Ġstock": 6645,
      "Ġnorm": 6646,
      "ĠCour": 6647,
      "åĲ«": 6648,
      "ruit": 6649,
      "Ġprove": 6650,
      "empor": 6651,
      "çľĭåĪ°": 6652,
      "bon": 6653,
      "HER": 6654,
      "ĠMa": 6655,
      "Ġexternal": 6656,
      "ĠInter": 6657,
      ".--": 6658,
      "ä»ĺ": 6659,
      "thm": 6660,
      "ĠÃł": 6661,
      "çī¹åĪ«": 6662,
      "Ġprimary": 6663,
      "olf": 6664,
      "Ġearn": 6665,
      "Ġproduce": 6666,
      "Ġsession": 6667,
      "IF": 6668,
      "Ġclub": 6669,
      "iation": 6670,
      "Ġtransport": 6671,
      "\\!": 6672,
      "Ġcommit": 6673,
      "åħŃ": 6674,
      "usiness": 6675,
      "åĵª": 6676,
      "elled": 6677,
      "éĨ": 6678,
      "åģ¥åº·": 6679,
      "ÐĶ": 6680,
      "çİ¯å¢ĥ": 6681,
      "umin": 6682,
      "${": 6683,
      "Ġquan": 6684,
      "Ġplans": 6685,
      "Ġhelps": 6686,
      "iler": 6687,
      "Ġnombre": 6688,
      "GB": 6689,
      "itute": 6690,
      "Ġwat": 6691,
      "ĠAugust": 6692,
      "Ġdedic": 6693,
      "ĠComm": 6694,
      "widetilde": 6695,
      "Ġglass": 6696,
      "oe": 6697,
      "æĢİä¹Ī": 6698,
      "Ġintent": 6699,
      "Ġappreci": 6700,
      "Ġreported": 6701,
      "åĤ": 6702,
      "nonumber": 6703,
      "Ġplayer": 6704,
      "target": 6705,
      "scale": 6706,
      "å¹´çļĦ": 6707,
      "ĠFeb": 6708,
      "Ġexcellent": 6709,
      "Ġstudent": 6710,
      "}-": 6711,
      "Ġalgorithm": 6712,
      "system": 6713,
      "Ġunderstanding": 6714,
      "æĭĽ": 6715,
      "Ġexplain": 6716,
      "Ġpero": 6717,
      "Ġhistor": 6718,
      "nica": 6719,
      "ĠCO": 6720,
      "Ġherself": 6721,
      "éĴŁ": 6722,
      "These": 6723,
      "Ġrights": 6724,
      "Group": 6725,
      "ĠTra": 6726,
      "ĠMat": 6727,
      "Ġnational": 6728,
      "Ġaspect": 6729,
      "Ġreflect": 6730,
      "Pol": 6731,
      "options": 6732,
      "Ġincreasing": 6733,
      "aign": 6734,
      "otion": 6735,
      "icrosoft": 6736,
      "Ġaware": 6737,
      "Ġfab": 6738,
      "claim": 6739,
      "Ġwasn": 6740,
      "arp": 6741,
      "æĿ¥è¯´": 6742,
      "ran": 6743,
      "ĠMich": 6744,
      "é¢Ŀ": 6745,
      "Ġplaced": 6746,
      "after": 6747,
      "Off": 6748,
      ";&": 6749,
      "ä»ĸçļĦ": 6750,
      "Ġheavy": 6751,
      "åĿĹ": 6752,
      "Ġprot": 6753,
      "Ġbasic": 6754,
      "Ġdues": 6755,
      "Ġseves": 6756,
      "Ġprojects": 6757,
      "Ġargument": 6758,
      "éķĩ": 6759,
      "Ġult": 6760,
      "ç½Ĺ": 6761,
      "Ġsett": 6762,
      "Ġwild": 6763,
      "Ġsufficient": 6764,
      "ĠPresident": 6765,
      "Ġdut": 6766,
      "'.": 6767,
      "ĠPaul": 6768,
      "Ġpages": 6769,
      "ĠÐ¢Ð¾": 6770,
      "ĠTom": 6771,
      "ĠJes": 6772,
      "çĹĽ": 6773,
      "Ġdoc": 6774,
      "Ġshape": 6775,
      "=\"../": 6776,
      "Us": 6777,
      "Ġinterpret": 6778,
      ">(": 6779,
      "Ġstorage": 6780,
      "never": 6781,
      "ecut": 6782,
      "Acc": 6783,
      "Ġpels": 6784,
      "Ġchalleng": 6785,
      "Ð²ÐµÑĢ": 6786,
      "Ġevening": 6787,
      "Ġcloud": 6788,
      "è§īå¾Ĺ": 6789,
      "CL": 6790,
      "Ġhuge": 6791,
      "Ġcomments": 6792,
      "Ġdaily": 6793,
      "Ġnav": 6794,
      "åī§": 6795,
      "Ġrock": 6796,
      "alla": 6797,
      "ç²ī": 6798,
      "Ġsmooth": 6799,
      "Ġterminal": 6800,
      "ĠMont": 6801,
      "åħ¶ä¸Ń": 6802,
      "Ġsale": 6803,
      "ç¬¬äºĮ": 6804,
      "ervices": 6805,
      "Ġlack": 6806,
      "Ġtalking": 6807,
      "å¥Ĺ": 6808,
      "ĠEven": 6809,
      "ĠDirect": 6810,
      "osen": 6811,
      "XX": 6812,
      "Ġforms": 6813,
      "netic": 6814,
      "å·¦": 6815,
      "Ġdise": 6816,
      "Ġcreating": 6817,
      "Ġbuff": 6818,
      "Ġadministr": 6819,
      "eds": 6820,
      "ifest": 6821,
      "Ġtrain": 6822,
      "Ð°ÑĢÐ¸": 6823,
      "Ġresource": 6824,
      "ounced": 6825,
      "ĠMal": 6826,
      "certain": 6827,
      "ĠJap": 6828,
      "èī¯": 6829,
      "Ġfaith": 6830,
      "åĵģçīĮ": 6831,
      "ĉpublic": 6832,
      "stream": 6833,
      "å¤«": 6834,
      "Ġchurch": 6835,
      "ĠÑİ": 6836,
      "ĠSection": 6837,
      "Ġunless": 6838,
      "Ġguard": 6839,
      "ÐµÐ»": 6840,
      "æŃ¦": 6841,
      "å·´": 6842,
      "km": 6843,
      "\\[": 6844,
      "lor": 6845,
      "{-": 6846,
      "Ġpresident": 6847,
      "erved": 6848,
      "Ġmotor": 6849,
      "rial": 6850,
      "Ġwhatever": 6851,
      "Ġmeas": 6852,
      "ĠDev": 6853,
      "Ġappropriate": 6854,
      "é¼": 6855,
      "Ġkill": 6856,
      "æł¹æį®": 6857,
      "SON": 6858,
      "PA": 6859,
      "IO": 6860,
      "ÑĢÐµÐ½": 6861,
      "ĠSir": 6862,
      "åį«": 6863,
      "acters": 6864,
      "Ġhy": 6865,
      "Ġparents": 6866,
      "è¿Ļæĺ¯": 6867,
      "fa": 6868,
      "åħ«": 6869,
      "é¡»": 6870,
      "åı³": 6871,
      "Ġbehavior": 6872,
      "][": 6873,
      "Ġfurn": 6874,
      "uid": 6875,
      "edia": 6876,
      "pg": 6877,
      "Ġej": 6878,
      "Ġsupported": 6879,
      "append": 6880,
      "Ġsources": 6881,
      "Ġreduce": 6882,
      "Ġthank": 6883,
      "Ġrap": 6884,
      "æĪĳçļĦ": 6885,
      "aren": 6886,
      "Ġwave": 6887,
      "aud": 6888,
      "Ġreached": 6889,
      "tex": 6890,
      "ĠRef": 6891,
      "Ġdemonstr": 6892,
      "Ġbelong": 6893,
      "---": 6894,
      "ĠInc": 6895,
      "Ge": 6896,
      "Ġstri": 6897,
      "ĠJack": 6898,
      "Ġopened": 6899,
      "IST": 6900,
      ";</": 6901,
      "Any": 6902,
      "tabular": 6903,
      "ĠJuly": 6904,
      "Ġsequence": 6905,
      "Ġcore": 6906,
      "Ġdeveloped": 6907,
      "Ġencour": 6908,
      "Ġupper": 6909,
      "Ġremoved": 6910,
      "èĥĮ": 6911,
      "clos": 6912,
      "æ¶Īè´¹": 6913,
      "ĠÑĤÐ°": 6914,
      "Ġyield": 6915,
      "Ġactivities": 6916,
      "ä¸ĢèĪ¬": 6917,
      "iance": 6918,
      "ĠÐ¸Ð¼Ð°": 6919,
      "Ġbool": 6920,
      "ĠTable": 6921,
      "Ġskills": 6922,
      "Ġsafety": 6923,
      "Ġfolder": 6924,
      "apers": 6925,
      "Ġsell": 6926,
      "ä»ĭ": 6927,
      "eless": 6928,
      "Ġactivity": 6929,
      "ĠTime": 6930,
      "json": 6931,
      "çĽ¸åħ³": 6932,
      "Builder": 6933,
      "åģĩ": 6934,
      "Rem": 6935,
      "ĠCounty": 6936,
      "Ġmoved": 6937,
      "Ġcircum": 6938,
      "éĵģ": 6939,
      "ĠKe": 6940,
      "Ġrelative": 6941,
      "Ġpeace": 6942,
      "Ġpresence": 6943,
      "ĠHist": 6944,
      "prop": 6945,
      "strong": 6946,
      "Ġorigin": 6947,
      "Ġtrav": 6948,
      "ospital": 6949,
      "Pos": 6950,
      "æ±½è½¦": 6951,
      "çĸ«": 6952,
      "æħ¢": 6953,
      "Ġdecor": 6954,
      "æľĢåĲİ": 6955,
      "Ġsuccessful": 6956,
      "ĠAfr": 6957,
      "process": 6958,
      "Box": 6959,
      "root": 6960,
      "Ġindu": 6961,
      "Ġgenerated": 6962,
      "Status": 6963,
      "Ġhusband": 6964,
      "Ġdones": 6965,
      "Âłanys": 6966,
      "ART": 6967,
      "Me": 6968,
      "force": 6969,
      "Ġcoordin": 6970,
      "Ġamazing": 6971,
      "Ġpaid": 6972,
      "Ġtour": 6973,
      "ĠTw": 6974,
      "ĠLog": 6975,
      "Ġdie": 6976,
      "Ġprotected": 6977,
      "Ġdomain": 6978,
      ">>": 6979,
      "ä¹¡": 6980,
      "ĠOR": 6981,
      "ĠGreat": 6982,
      "Ġdetermine": 6983,
      "ears": 6984,
      "Ġcomen": 6985,
      "ä¸ĵä¸ļ": 6986,
      "Ġexamples": 6987,
      "ç©¿": 6988,
      "Ġdry": 6989,
      "Ġlegal": 6990,
      "Ġagree": 6991,
      "Ġnovel": 6992,
      "blic": 6993,
      "ĠAustral": 6994,
      "ä»·æł¼": 6995,
      "dl": 6996,
      "Ġmedical": 6997,
      "defined": 6998,
      "ĠNote": 6999,
      "Desc": 7000,
      "Ġpressure": 7001,
      "ä¹ħ": 7002,
      "berg": 7003,
      "possible": 7004,
      "ĠDel": 7005,
      "æĴŃ": 7006,
      "bel": 7007,
      "Ġhous": 7008,
      "rier": 7009,
      "there": 7010,
      "ĠCr": 7011,
      "Ġinsurance": 7012,
      "Ġvert": 7013,
      "depend": 7014,
      "coming": 7015,
      "çºª": 7016,
      "Thanks": 7017,
      "alls": 7018,
      "Ġpublished": 7019,
      "åįĸ": 7020,
      "ography": 7021,
      "ĠService": 7022,
      "åºŃ": 7023,
      "Ġproceed": 7024,
      "Ġcosts": 7025,
      "}+": 7026,
      "ä¸´": 7027,
      "å¯Ĩ": 7028,
      "ä»Ĭå¤©": 7029,
      "YPE": 7030,
      "ĠSk": 7031,
      "å®¡": 7032,
      "UB": 7033,
      "vest": 7034,
      "Ġcountries": 7035,
      "ĠBel": 7036,
      "Ġmargin": 7037,
      "Ġeffort": 7038,
      "Ġseparate": 7039,
      "Ġnord": 7040,
      "kg": 7041,
      "ç«ł": 7042,
      "Ġtrip": 7043,
      "Ġpray": 7044,
      "Ġcouldn": 7045,
      "Ġnamed": 7046,
      "Ġaquesta": 7047,
      "Ġwrote": 7048,
      "ala": 7049,
      "ĠFile": 7050,
      "Ġdamage": 7051,
      "Ġrank": 7052,
      "Ġguide": 7053,
      "ÑĢÑı": 7054,
      "xml": 7055,
      "Ġspot": 7056,
      "Ġproviding": 7057,
      "åĽłæŃ¤": 7058,
      "column": 7059,
      "Ð½Ñı": 7060,
      "burg": 7061,
      "Ð·Ð¾": 7062,
      "iber": 7063,
      "åıªæľī": 7064,
      "ĠOther": 7065,
      "Ġdirector": 7066,
      "ç«¯": 7067,
      "Ġpatients": 7068,
      "Ġhappens": 7069,
      "Ġcontra": 7070,
      "Ġevidence": 7071,
      "äº§ä¸ļ": 7072,
      "æĸ¹æ³ķ": 7073,
      "æī¹": 7074,
      "ä¼¼": 7075,
      "æĶ¿åºľ": 7076,
      "Ġleaders": 7077,
      "Ġfavorite": 7078,
      "allel": 7079,
      "Ġfellow": 7080,
      "inet": 7081,
      "Ġdanger": 7082,
      "Ġpolitical": 7083,
      "Ġinternet": 7084,
      "Ġmissing": 7085,
      "Ġoperator": 7086,
      "igger": 7087,
      "ä½Ļ": 7088,
      "Ġcontr": 7089,
      "ivo": 7090,
      "Ġcontinued": 7091,
      "è¡£": 7092,
      "Ġinsert": 7093,
      "Since": 7094,
      "gest": 7095,
      "ç¨³": 7096,
      "cat": 7097,
      "ĠBer": 7098,
      "å¥ĩ": 7099,
      "ĠBook": 7100,
      "dr": 7101,
      "Ġbes": 7102,
      "Ġinstallation": 7103,
      "äº®": 7104,
      "anging": 7105,
      "imin": 7106,
      "########": 7107,
      "Ð¿Ñĥ": 7108,
      "Check": 7109,
      "ded": 7110,
      "ÑĤÐ¾ÑĩÐ½Ð¸": 7111,
      "TP": 7112,
      "Ġmonitor": 7113,
      "Ġcounter": 7114,
      "ĠÐ¿ÑĢÐ°": 7115,
      "Ġspecified": 7116,
      "åĨħå®¹": 7117,
      "outer": 7118,
      "Ġvariables": 7119,
      "å¸ĮæľĽ": 7120,
      "DD": 7121,
      "habitants": 7122,
      "Ġseeing": 7123,
      "Ġdetermined": 7124,
      "Ġpopulation": 7125,
      "å®£": 7126,
      "jar": 7127,
      "ĠDavid": 7128,
      "å¹³åı°": 7129,
      "Ġloved": 7130,
      "Ġpanel": 7131,
      "ani": 7132,
      "Ġspent": 7133,
      "Ġdem": 7134,
      "æī§": 7135,
      "ĠSeg": 7136,
      "Ġempty": 7137,
      "ovember": 7138,
      "Ġpark": 7139,
      "ĠHealth": 7140,
      "Ġthick": 7141,
      "Ġobvious": 7142,
      "æĭį": 7143,
      "Ġcentre": 7144,
      "ĠMo": 7145,
      "asks": 7146,
      "è¿ĩç¨ĭ": 7147,
      "ĠOh": 7148,
      "ĠCast": 7149,
      "å®ŀçİ°": 7150,
      "EM": 7151,
      "ĠHome": 7152,
      "stract": 7153,
      "Ġmur": 7154,
      "uest": 7155,
      "Ġ&=": 7156,
      "ĠFe": 7157,
      "phone": 7158,
      "CA": 7159,
      "ÑĨÐµ": 7160,
      "ector": 7161,
      "Ġharm": 7162,
      "Ġconsequ": 7163,
      "ĠConst": 7164,
      "will": 7165,
      "args": 7166,
      "åŃ¦æł¡": 7167,
      "cember": 7168,
      "othes": 7169,
      "ĠSpec": 7170,
      "ensor": 7171,
      "Ġburn": 7172,
      "Ġideal": 7173,
      "éŃ": 7174,
      "}]": 7175,
      "IA": 7176,
      "Ġelectron": 7177,
      "ĠÐ¼Ð¸": 7178,
      "åį°": 7179,
      "éº": 7180,
      "hentic": 7181,
      "Base": 7182,
      "Ġdescribe": 7183,
      "åĪĺ": 7184,
      "font": 7185,
      "Hist": 7186,
      "appe": 7187,
      "ĠMost": 7188,
      "').": 7189,
      "ĠÑĦÐ¾Ð½": 7190,
      "Ðĵ": 7191,
      "Ġsigu": 7192,
      "idents": 7193,
      "Ġsymbol": 7194,
      "Ġmeant": 7195,
      "åĮĹäº¬": 7196,
      "æ³¢": 7197,
      "dy": 7198,
      "ĠBritish": 7199,
      "iol": 7200,
      "Util": 7201,
      "GL": 7202,
      "âĶĢ": 7203,
      "Ġchannel": 7204,
      "åĪ»": 7205,
      "fast": 7206,
      "Ġmine": 7207,
      "Ġtables": 7208,
      "ĠIP": 7209,
      "cules": 7210,
      "Ġpurchase": 7211,
      "åħ³ç³»": 7212,
      "Ġlearned": 7213,
      "çĶļèĩ³": 7214,
      "ĠÐ¿ÑĬÑĢ": 7215,
      "çĶŁäº§": 7216,
      "ãģ": 7217,
      ":\\": 7218,
      "Ġadjust": 7219,
      "cell": 7220,
      "æ¯Ĵ": 7221,
      "Ġplayed": 7222,
      "Ġconserv": 7223,
      "ĠÐ¸Ð½": 7224,
      "ç»Ħç»ĩ": 7225,
      "Em": 7226,
      "Ġadding": 7227,
      "Ð¾Ð±": 7228,
      "Ġbath": 7229,
      "Ġtoward": 7230,
      "endo": 7231,
      "cit": 7232,
      "Ġcritical": 7233,
      "Ġearlier": 7234,
      "ĠCalif": 7235,
      "çķ¥": 7236,
      "cr": 7237,
      "tra": 7238,
      "ĠFrance": 7239,
      "å¥ĸ": 7240,
      "Post": 7241,
      "riage": 7242,
      "Ġboolean": 7243,
      "module": 7244,
      "icol": 7245,
      "Ġcant": 7246,
      "mem": 7247,
      "ä¹İ": 7248,
      "Ġsen": 7249,
      "Create": 7250,
      "ĠSen": 7251,
      "should": 7252,
      "æīĭæľº": 7253,
      "Ġreasons": 7254,
      "Content": 7255,
      "Ġthread": 7256,
      "Ġquiet": 7257,
      ")</": 7258,
      "ĠFree": 7259,
      "iders": 7260,
      "ĠHel": 7261,
      "Ġgar": 7262,
      "Ð²Ð¸Ñı": 7263,
      "aments": 7264,
      "unya": 7265,
      "Ġrequirements": 7266,
      "Last": 7267,
      "ĠUs": 7268,
      "ĠVer": 7269,
      "mid": 7270,
      "Ġtrade": 7271,
      "Ġgra": 7272,
      "Ġdepends": 7273,
      "æĿ¾": 7274,
      "ĠHT": 7275,
      "Ġfell": 7276,
      "éĺ¿": 7277,
      "Ġbra": 7278,
      "Ġran": 7279,
      "Ġvill": 7280,
      "xa": 7281,
      "Ġparticularly": 7282,
      "fortun": 7283,
      "ç»ľ": 7284,
      "Ð¢": 7285,
      "Ð²Ð°Ð½ÐµÑĤÐ¾": 7286,
      "AV": 7287,
      "rome": 7288,
      "Ġwonderful": 7289,
      "\"]": 7290,
      "ĠJanuary": 7291,
      "Ġeasier": 7292,
      "Ġadvantage": 7293,
      "header": 7294,
      "ĠÐ±Ð¸": 7295,
      "Å¡": 7296,
      "show": 7297,
      "\\{": 7298,
      "zeta": 7299,
      "ae": 7300,
      "Ġdecre": 7301,
      "ictionary": 7302,
      "rypt": 7303,
      "ĠJose": 7304,
      "ĠUse": 7305,
      "å½ķ": 7306,
      "func": 7307,
      "Ġspread": 7308,
      "æ¥¼": 7309,
      "Ġkitchen": 7310,
      "Point": 7311,
      "ĠUK": 7312,
      "urity": 7313,
      "ĠÃī": 7314,
      "Ġinstant": 7315,
      "}=\\": 7316,
      "Ġlatter": 7317,
      "sembly": 7318,
      "Ġspin": 7319,
      "river": 7320,
      "jav": 7321,
      "Ġincreased": 7322,
      "ĠLaw": 7323,
      "Ġ+=": 7324,
      "Ġsites": 7325,
      "inder": 7326,
      "ercial": 7327,
      "åĲĹ": 7328,
      "namespace": 7329,
      "ç¬ĳ": 7330,
      "Ġdomin": 7331,
      "Ġmagn": 7332,
      "Ġsurround": 7333,
      "when": 7334,
      "ĠFace": 7335,
      "äºĨè§£": 7336,
      "Ġcareer": 7337,
      "Ġproduced": 7338,
      "ude": 7339,
      "star": 7340,
      "Ġda": 7341,
      "Ð·Ðµ": 7342,
      "Ġtick": 7343,
      "åª": 7344,
      "èĭ¦": 7345,
      "CP": 7346,
      "Ġ(*": 7347,
      "Ġtempl": 7348,
      "Ġelectric": 7349,
      "Go": 7350,
      "å®¹æĺĵ": 7351,
      "Arg": 7352,
      "Ġrich": 7353,
      "èĩªçĦ¶": 7354,
      "Ġmobile": 7355,
      "ancing": 7356,
      "vari": 7357,
      "Ġwouldn": 7358,
      "ĠCong": 7359,
      "ç»ĥ": 7360,
      "ĠCheck": 7361,
      "src": 7362,
      "Ġshowed": 7363,
      "åįł": 7364,
      "ĠFran": 7365,
      "åĮ»éĻ¢": 7366,
      "Ġtorn": 7367,
      "ÑģÐºÐ¸ÑĤÐµ": 7368,
      "Ġdrink": 7369,
      "Ġfinished": 7370,
      "ensional": 7371,
      "Ġflat": 7372,
      "adata": 7373,
      "ĠMil": 7374,
      "ÑĥÐ»": 7375,
      "Ġren": 7376,
      "Ġcivil": 7377,
      "idad": 7378,
      "ĠÑĩ": 7379,
      "ĠSci": 7380,
      "ederal": 7381,
      "ĠDem": 7382,
      "ĠAssoci": 7383,
      "ĠWell": 7384,
      "ĠTheorem": 7385,
      "acement": 7386,
      "zen": 7387,
      "ÑĤÐ¾ÑĩÐ½Ð¸ÑĨÐ¸": 7388,
      "perties": 7389,
      "Don": 7390,
      "cy": 7391,
      "Ġbirth": 7392,
      "Ste": 7393,
      "command": 7394,
      "éĻĪ": 7395,
      "Spec": 7396,
      "ÑĤÑĢÐ¾": 7397,
      "Ġhaven": 7398,
      "ä¸įä»ħ": 7399,
      "Ġestud": 7400,
      "ä¸°": 7401,
      "Ġadvice": 7402,
      "edge": 7403,
      "Rep": 7404,
      "Ġped": 7405,
      "çĶ±äºİ": 7406,
      "æ´Ĺ": 7407,
      "ĠMount": 7408,
      "Ġpictures": 7409,
      "ĠMary": 7410,
      "Sim": 7411,
      "Ġpaint": 7412,
      ")=\\": 7413,
      "è¿Ļæł·çļĦ": 7414,
      "Ġdear": 7415,
      "Ġpros": 7416,
      "*/": 7417,
      "Ġmut": 7418,
      "æ³¨æĦı": 7419,
      "ucle": 7420,
      "ĠSam": 7421,
      "enu": 7422,
      "bottom": 7423,
      "Ġdaughter": 7424,
      "Are": 7425,
      "Ġpun": 7426,
      "close": 7427,
      "\\]": 7428,
      "status": 7429,
      "Ġrespond": 7430,
      "ĠFROM": 7431,
      "Ġholds": 7432,
      "ributions": 7433,
      "Ġpool": 7434,
      "ä½ľçĶ¨": 7435,
      "Ġequipment": 7436,
      "aria": 7437,
      "è½½": 7438,
      "åĽ½éĻħ": 7439,
      "Ġshowing": 7440,
      "ATION": 7441,
      "ĠMet": 7442,
      "ĠEq": 7443,
      "ila": 7444,
      "Ġcharacters": 7445,
      "èĮ¶": 7446,
      "èĹ": 7447,
      "ĠChurch": 7448,
      "ĠEX": 7449,
      "åŁºæľ¬": 7450,
      "Head": 7451,
      "Ġcarried": 7452,
      "ĠUnits": 7453,
      "REE": 7454,
      "Ġer": 7455,
      "ĠTor": 7456,
      "Default": 7457,
      "ads": 7458,
      "BC": 7459,
      "layout": 7460,
      "Ġbow": 7461,
      "Ġbenefits": 7462,
      "skip": 7463,
      "ourney": 7464,
      "Ġpin": 7465,
      "Ġknows": 7466,
      "oles": 7467,
      "Ġshot": 7468,
      "Ġexception": 7469,
      "fit": 7470,
      "Ġforg": 7471,
      "Fe": 7472,
      "Ġfan": 7473,
      "Command": 7474,
      "ĠThanks": 7475,
      "Ġgrowing": 7476,
      "oca": 7477,
      "ĠType": 7478,
      "æįŁ": 7479,
      "Ġshared": 7480,
      "åľ°æĸ¹": 7481,
      "Ġopinion": 7482,
      "eries": 7483,
      "Ġwid": 7484,
      "ĠÐļÐ¾": 7485,
      "ribe": 7486,
      "Ġund": 7487,
      "Ġbroken": 7488,
      "Ġdatos": 7489,
      "swered": 7490,
      "é¡º": 7491,
      "Ġhighest": 7492,
      "ĠIndia": 7493,
      "Ġfarm": 7494,
      "Ġemerg": 7495,
      "ĠStreet": 7496,
      "âĶĤ": 7497,
      "Ġconj": 7498,
      "Ġrace": 7499,
      "Ġphotos": 7500,
      "è¿ĻéĩĮ": 7501,
      "Ġiter": 7502,
      "Ġlibrary": 7503,
      "SELECT": 7504,
      "Ġdefin": 7505,
      "finished": 7506,
      "________": 7507,
      "ĠIII": 7508,
      "aming": 7509,
      "Ġrates": 7510,
      "Ġwaiting": 7511,
      "å³": 7512,
      "Ġruns": 7513,
      "Fl": 7514,
      "sia": 7515,
      "Some": 7516,
      "reme": 7517,
      "ĠJames": 7518,
      "Ġefficient": 7519,
      "omin": 7520,
      "Ġrent": 7521,
      "Ġtu": 7522,
      "Ġresolution": 7523,
      "Ġstars": 7524,
      "ologia": 7525,
      "Ġfinding": 7526,
      "itzar": 7527,
      "å¦Ĥä½ķ": 7528,
      "Component": 7529,
      "win": 7530,
      "Ġverb": 7531,
      "ste": 7532,
      "ä¸Ģæ¬¡": 7533,
      "ĠRich": 7534,
      "Ġstudies": 7535,
      "ĠTherefore": 7536,
      "adow": 7537,
      "ĠGreen": 7538,
      "æĹı": 7539,
      "Ġoffered": 7540,
      "å¯Ł": 7541,
      "di": 7542,
      "(-": 7543,
      "Ġremains": 7544,
      "Ġremark": 7545,
      "Ġminimum": 7546,
      "ĠÑĤÐ¾Ð²Ð°": 7547,
      "Ġdru": 7548,
      "who": 7549,
      "abilities": 7550,
      "Instance": 7551,
      "Ġmir": 7552,
      "åıªæĺ¯": 7553,
      "itu": 7554,
      "AND": 7555,
      "Ġmac": 7556,
      "åĬ³": 7557,
      "ĠÎ": 7558,
      "Ġocup": 7559,
      "è¿½": 7560,
      "ÐºÐ°Ð½": 7561,
      "Ġmarketing": 7562,
      "Ġarrib": 7563,
      "ĠSeptember": 7564,
      "Ġillustr": 7565,
      "ĠGood": 7566,
      "rl": 7567,
      "åī¯": 7568,
      "Ġhorse": 7569,
      "tee": 7570,
      "ä¸įæĸŃ": 7571,
      "Ġwants": 7572,
      "alg": 7573,
      "Ġshut": 7574,
      "fess": 7575,
      "KE": 7576,
      "private": 7577,
      "Ġreturns": 7578,
      "ĠOctober": 7579,
      "Token": 7580,
      "æĽ´å¤ļ": 7581,
      "Ġta": 7582,
      "çļĦäºĭ": 7583,
      "Ġfuncion": 7584,
      "Ġhacer": 7585,
      "Ġmedic": 7586,
      "ĠYes": 7587,
      "çīĽ": 7588,
      "Ġanswered": 7589,
      "Sp": 7590,
      "Ġfinite": 7591,
      "æĵį": 7592,
      "Ġprepar": 7593,
      "Ġspend": 7594,
      ")}\\": 7595,
      "ashington": 7596,
      "ĠFigure": 7597,
      "èĨ": 7598,
      "Ġprobability": 7599,
      "ownload": 7600,
      "Ġdoctor": 7601,
      "Gener": 7602,
      "ĠPre": 7603,
      "ĠPet": 7604,
      "Ġeste": 7605,
      "ĠÐºÐ¾Ð½": 7606,
      "ruary": 7607,
      "bro": 7608,
      "æ¶¨": 7609,
      "before": 7610,
      "Oper": 7611,
      "Ġtag": 7612,
      "Ġequivalent": 7613,
      "Ġvs": 7614,
      "Ġpackages": 7615,
      "Your": 7616,
      "Ġinternational": 7617,
      "Ġusual": 7618,
      "Open": 7619,
      "icious": 7620,
      "duc": 7621,
      "Ġsymmet": 7622,
      "More": 7623,
      "Ġax": 7624,
      "æĭ¥": 7625,
      "ĠLinux": 7626,
      "Ġstress": 7627,
      "}|": 7628,
      "Ġcaused": 7629,
      "å¤ľ": 7630,
      "ĠObject": 7631,
      "lands": 7632,
      "element": 7633,
      "ÐĺÐ·ÑĤÐ¾ÑĩÐ½Ð¸ÑĨÐ¸": 7634,
      "ç¨İ": 7635,
      "Ġtrees": 7636,
      "Ð¹ÑĤÐ¾": 7637,
      "Ġhabitatges": 7638,
      "èĦĳ": 7639,
      "Ġadm": 7640,
      "ĠSu": 7641,
      "Ġsounds": 7642,
      "Bl": 7643,
      "sg": 7644,
      "Ġtract": 7645,
      "ĠGal": 7646,
      "ror": 7647,
      "Ġdied": 7648,
      "Am": 7649,
      "Phone": 7650,
      "åŁ¹": 7651,
      "ĠCatalunya": 7652,
      "Ġdefinitely": 7653,
      "Ġforget": 7654,
      "è¿Ľåħ¥": 7655,
      "Ġexhib": 7656,
      "front": 7657,
      "control": 7658,
      "ston": 7659,
      "Ġpure": 7660,
      "Ġseconds": 7661,
      "bles": 7662,
      "ä¸½": 7663,
      "æľ¨": 7664,
      "Ġcovered": 7665,
      "æ¯Ľ": 7666,
      "Ġsimpl": 7667,
      "While": 7668,
      "Ġstation": 7669,
      "number": 7670,
      "doc": 7671,
      "Action": 7672,
      "Ġstrugg": 7673,
      "rate": 7674,
      "Ġindividuals": 7675,
      "Ġappeared": 7676,
      "Ġexpand": 7677,
      "term": 7678,
      "Ġadapt": 7679,
      "Ġconstraint": 7680,
      "Ġguarant": 7681,
      "Ġthr": 7682,
      "Ġrelevant": 7683,
      "Ġglad": 7684,
      "PR": 7685,
      "ĠInternational": 7686,
      "é¢ĳ": 7687,
      "æĦŁè§ī": 7688,
      "æ¯ķ": 7689,
      "make": 7690,
      "format": 7691,
      "exec": 7692,
      "Ġconven": 7693,
      "Ġtransl": 7694,
      "Ġenh": 7695,
      "Ġurl": 7696,
      "¤Ĳ": 7697,
      "ULT": 7698,
      "aptop": 7699,
      "è½®": 7700,
      "some": 7701,
      "Ġsight": 7702,
      "çĹĩ": 7703,
      "ĠSur": 7704,
      "Ġoverall": 7705,
      "emp": 7706,
      "ç¼º": 7707,
      "Ġcart": 7708,
      "Ġmanager": 7709,
      "ĠChristian": 7710,
      "ĠÐ²Ð¾Ð¹": 7711,
      "Ġexpert": 7712,
      "Ġrows": 7713,
      "éĽ¨": 7714,
      "textwidth": 7715,
      "$)": 7716,
      "è¾Ĩ": 7717,
      "Min": 7718,
      "Ð·Ð²Ð°": 7719,
      "PT": 7720,
      "éĿ©": 7721,
      "Ġborn": 7722,
      "terior": 7723,
      "han": 7724,
      "Ġlloc": 7725,
      "Ġubuntu": 7726,
      "èĵ": 7727,
      "Ġveloc": 7728,
      "else": 7729,
      "common": 7730,
      ".~": 7731,
      "ometry": 7732,
      "Ġstrategy": 7733,
      "ĠFound": 7734,
      "ushed": 7735,
      "Back": 7736,
      "ĠForm": 7737,
      "ĠÐºÑĬÐ¼": 7738,
      "ç¯": 7739,
      "Hel": 7740,
      "ĠNone": 7741,
      "Ġsquare": 7742,
      "gin": 7743,
      "heet": 7744,
      "Ġmotion": 7745,
      "aturday": 7746,
      "vo": 7747,
      "DA": 7748,
      "Ġthanks": 7749,
      "gebra": 7750,
      "Ġtab": 7751,
      "çĦ¶åĲİ": 7752,
      "UI": 7753,
      "Sty": 7754,
      "apa": 7755,
      "Ġautomatically": 7756,
      "sche": 7757,
      "Ġye": 7758,
      "mt": 7759,
      "Ġcit": 7760,
      "Ġlaugh": 7761,
      "Ġcrow": 7762,
      "ÑĪÐ°": 7763,
      "crete": 7764,
      "Ġclearly": 7765,
      "poses": 7766,
      "Ġluck": 7767,
      "del": 7768,
      "Handler": 7769,
      "Ġstick": 7770,
      "ä»¤": 7771,
      "Ġoperations": 7772,
      "Ġoccup": 7773,
      "Ġenable": 7774,
      "Ġpert": 7775,
      "åĬŁèĥ½": 7776,
      "åŃĺåľ¨": 7777,
      "ascript": 7778,
      "ellig": 7779,
      "estern": 7780,
      "Ġrelation": 7781,
      "çĽ´æİ¥": 7782,
      "Ġopening": 7783,
      "è´µ": 7784,
      "é±": 7785,
      "æĪĲåĬŁ": 7786,
      "ĠÐºÐ¾Ð¸ÑĤÐ¾": 7787,
      "Ġcampaign": 7788,
      "èĤ¤": 7789,
      "inf": 7790,
      "èĥľ": 7791,
      "ĠÐŁÑĢÐµÐ·": 7792,
      "Ġproperly": 7793,
      "Ġdu": 7794,
      "ĠGroup": 7795,
      "èĪª": 7796,
      "}_\\": 7797,
      "Ġsac": 7798,
      "SI": 7799,
      "Ġadvance": 7800,
      "Ġarchitect": 7801,
      "âķ": 7802,
      "enses": 7803,
      "Ġextract": 7804,
      "Pre": 7805,
      "å½©": 7806,
      "split": 7807,
      "update": 7808,
      "èİ·å¾Ĺ": 7809,
      "ounce": 7810,
      "DC": 7811,
      "ĠChina": 7812,
      "åĩĢ": 7813,
      "åħ¨åĽ½": 7814,
      "ĠLou": 7815,
      "icles": 7816,
      "Load": 7817,
      "iors": 7818,
      "edding": 7819,
      "engo": 7820,
      "ĠMem": 7821,
      "Link": 7822,
      "izations": 7823,
      "ĠPlay": 7824,
      "ĠQue": 7825,
      "Ġvent": 7826,
      "ĠÐ½Ð°Ð¹": 7827,
      "Ġsoul": 7828,
      "ĠArm": 7829,
      "ĠDet": 7830,
      "Ġbenefit": 7831,
      "Ġloop": 7832,
      "Ð±Ð»Ð¸": 7833,
      "Ġdoll": 7834,
      "å°±ä¼ļ": 7835,
      "èº«ä½ĵ": 7836,
      "Ġattract": 7837,
      "åĽ°": 7838,
      "Ġfif": 7839,
      "posite": 7840,
      "Ġlinks": 7841,
      "èĢģå¸Ī": 7842,
      "iture": 7843,
      "vider": 7844,
      "Ġgrav": 7845,
      "ras": 7846,
      "ä¸Ģç§į": 7847,
      "åı«": 7848,
      "ĠFil": 7849,
      "Ġprofile": 7850,
      "iciency": 7851,
      "Ġthou": 7852,
      "ä¸Ŀ": 7853,
      "Ġbird": 7854,
      "Ð´Ð½Ð¾": 7855,
      "allow": 7856,
      "ĠAM": 7857,
      "Ġspl": 7858,
      "é±¼": 7859,
      "Ġslightly": 7860,
      "ä¹Łä¸į": 7861,
      "ĠDec": 7862,
      "éĢĢ": 7863,
      "rot": 7864,
      "{(": 7865,
      "Cell": 7866,
      "Options": 7867,
      "Ġbytes": 7868,
      "ĠFin": 7869,
      "ĠCollege": 7870,
      "Ġrestrict": 7871,
      "itzaci": 7872,
      "Å¾": 7873,
      "ĠPM": 7874,
      "åħ·æľī": 7875,
      "Ġpush": 7876,
      "Ġfranc": 7877,
      "Ġsetup": 7878,
      "bb": 7879,
      "anted": 7880,
      "Ġnation": 7881,
      "åĢŁ": 7882,
      "ĠWhite": 7883,
      "ONT": 7884,
      "å¹¸": 7885,
      "Ð½Ð´": 7886,
      "utely": 7887,
      "ĠÐ¿Ð°": 7888,
      "ĠĠĠĠĠĠĠĠĠĠĠĠĠĠĠĠĠĠĠĠĠĠĠĠĠĠĠĠĠĠĠĠĠĠĠ": 7889,
      "ĠÐ²ÑĬÐ²": 7890,
      "ental": 7891,
      "ems": 7892,
      "ombre": 7893,
      "ä½Ľ": 7894,
      "ä¸ĥ": 7895,
      "ç§Ģ": 7896,
      "æĲŃ": 7897,
      "ĠReturn": 7898,
      "Ġcried": 7899,
      "Please": 7900,
      "ĠEnt": 7901,
      "Ġorganization": 7902,
      "Ġperformed": 7903,
      "menu": 7904,
      "ĠĠĠĠĠĠĠĠĠĠĠĠĠĠĠĠĠĠĠĠ": 7905,
      "Ġanc": 7906,
      "eder": 7907,
      "Ġdeliver": 7908,
      "éĿĻ": 7909,
      "Ġtransition": 7910,
      "orry": 7911,
      "/.": 7912,
      "ç§ĳæĬĢ": 7913,
      "Resource": 7914,
      "ĠEach": 7915,
      "Next": 7916,
      "property": 7917,
      "Null": 7918,
      "æĭ¬": 7919,
      "RL": 7920,
      "Ġarms": 7921,
      "Number": 7922,
      "ĠÐ¨": 7923,
      "ette": 7924,
      "âĤ": 7925,
      "ĠSunday": 7926,
      "Ġinfluence": 7927,
      "Ġicon": 7928,
      "èĭı": 7929,
      "ĠTechn": 7930,
      "ingly": 7931,
      "rael": 7932,
      "Ġleaving": 7933,
      "member": 7934,
      "anges": 7935,
      "ĠÐ²ÑĢÐµ": 7936,
      "Ġpattern": 7937,
      "asy": 7938,
      "Ġplanning": 7939,
      "ĠRobert": 7940,
      "iente": 7941,
      "ç¬Ķ": 7942,
      "è§Ħå®ļ": 7943,
      "ç»¿": 7944,
      "ether": 7945,
      "ĠÐĹÐ°": 7946,
      "ĠCompany": 7947,
      "bum": 7948,
      "æĶ»": 7949,
      "ĠDC": 7950,
      "ĠEstats": 7951,
      "ĠEast": 7952,
      "ĠNovember": 7953,
      "è¾ĵ": 7954,
      "ĠJer": 7955,
      "ä»¥ä¸Ĭ": 7956,
      "bound": 7957,
      "ifi": 7958,
      "Ġvisual": 7959,
      "Ġseven": 7960,
      "Ġprices": 7961,
      "Ã¶": 7962,
      "vere": 7963,
      "Ġreleased": 7964,
      "lections": 7965,
      "ĠÐ´Ð¸": 7966,
      "widehat": 7967,
      "}^\\": 7968,
      "åĿĲ": 7969,
      "Ġhotel": 7970,
      "reek": 7971,
      "ÑģÑĤÑĢÐ¾": 7972,
      "Det": 7973,
      "Page": 7974,
      "ĠDan": 7975,
      "Ġregist": 7976,
      "çº³": 7977,
      "åĪ¤": 7978,
      "ĠTH": 7979,
      "ĠLo": 7980,
      "Ġsuc": 7981,
      "ffic": 7982,
      "ĠDecember": 7983,
      "Ġupdated": 7984,
      "ĠThom": 7985,
      "èĸ": 7986,
      "Ġring": 7987,
      "Ġdetail": 7988,
      "Ġchanging": 7989,
      "ĠWhe": 7990,
      "ĠĠĠĠĠĠĠĠĠĠĠĠĠĠĠĠĠĠĠĠĠ": 7991,
      "æłĩåĩĨ": 7992,
      "diff": 7993,
      "ÑģÑĤÐ²Ð¾ÑĤÐ¾": 7994,
      ")^{": 7995,
      "Ġassign": 7996,
      ";\\": 7997,
      "ĠMill": 7998,
      "Ġextremely": 7999,
      "ä¸Ģä¸ĭ": 8000,
      "Ġappoint": 8001,
      "Ġcompleted": 8002,
      "Ġfrag": 8003,
      "Ġassess": 8004,
      "Ġsir": 8005,
      "ä»£è¡¨": 8006,
      "real": 8007,
      "ĠPrem": 8008,
      "ĠÐ»Ð¸": 8009,
      "ä¸¤ä¸ª": 8010,
      "ĠÐºÐ¾Ð¹ÑĤÐ¾": 8011,
      "SH": 8012,
      "ç§»": 8013,
      "ivery": 8014,
      "FT": 8015,
      "Ġtesting": 8016,
      "click": 8017,
      "é¤Ĳ": 8018,
      "å¼Ĥ": 8019,
      "åħ°": 8020,
      "æŃĮ": 8021,
      "Ġtant": 8022,
      "Listener": 8023,
      "Ġvalor": 8024,
      "Ð¿ÑĢÐ°": 8025,
      "Ġjun": 8026,
      "Attribute": 8027,
      "ÑıÑĤ": 8028,
      "ĠÐ¸Ð»Ð¸": 8029,
      "Ġsmart": 8030,
      "Ġreli": 8031,
      "See": 8032,
      "çĨŁ": 8033,
      "Ġtemps": 8034,
      "ä»Ĭå¹´": 8035,
      "åįĪ": 8036,
      "Ġchief": 8037,
      "Ġdiferent": 8038,
      "æıĲé«ĺ": 8039,
      "clude": 8040,
      "van": 8041,
      "cdots": 8042,
      "Ġonto": 8043,
      "åĨ²": 8044,
      "åĨ·": 8045,
      "Ġtraditional": 8046,
      "åįķä½į": 8047,
      "PRO": 8048,
      "acc": 8049,
      "cula": 8050,
      "Const": 8051,
      "Ġthoughts": 8052,
      "Ġprocesses": 8053,
      "Char": 8054,
      "ĉvar": 8055,
      "éĿł": 8056,
      "Ġpossess": 8057,
      "åİŁåĽł": 8058,
      "product": 8059,
      "Ġthy": 8060,
      "Click": 8061,
      "Ð¿ÑĢÐ¾": 8062,
      "è®Ń": 8063,
      "ructions": 8064,
      "Ġmo": 8065,
      "Ġ\"\"\"": 8066,
      "asant": 8067,
      "Ġextension": 8068,
      "ĠChristmas": 8069,
      "ÑģÑĤÑĢÐ°": 8070,
      "Ġphrase": 8071,
      "Ġphoto": 8072,
      "Ġregarding": 8073,
      "uce": 8074,
      "ĠOver": 8075,
      "mic": 8076,
      "Ġweather": 8077,
      "Ġcircumst": 8078,
      "Ġspring": 8079,
      "were": 8080,
      "ĠPo": 8081,
      "etime": 8082,
      "ç½ĳç»ľ": 8083,
      "Ġoccasion": 8084,
      "ornia": 8085,
      "æ°¸": 8086,
      "æ±ī": 8087,
      "ĠHen": 8088,
      "Ġcorner": 8089,
      "lemma": 8090,
      "Nav": 8091,
      "æĢ¥": 8092,
      "Ġaqu": 8093,
      "Ġquals": 8094,
      "Ġfactors": 8095,
      "Ð»Ð¾ÑĤÐ¾": 8096,
      "Ġolder": 8097,
      "Ġinstr": 8098,
      "Ġtruly": 8099,
      "ç²¾ç¥ŀ": 8100,
      "Version": 8101,
      "their": 8102,
      "ÐºÑģ": 8103,
      "Ġcalls": 8104,
      "Ġleads": 8105,
      "ĠDi": 8106,
      "INT": 8107,
      "meta": 8108,
      "Ġplus": 8109,
      "Ġnative": 8110,
      "ĠHot": 8111,
      "Ġgirls": 8112,
      "Ġextends": 8113,
      "Els": 8114,
      "Block": 8115,
      "PL": 8116,
      "Ġbaby": 8117,
      "ixer": 8118,
      "Ġsist": 8119,
      "Ġneut": 8120,
      "Ġscore": 8121,
      "project": 8122,
      "ameters": 8123,
      "ĠRel": 8124,
      "çģµ": 8125,
      "Ġnou": 8126,
      "Ġscene": 8127,
      "é©¾": 8128,
      "ãĢĲ": 8129,
      "Ag": 8130,
      "Ġintroduced": 8131,
      "volution": 8132,
      "Ġpowerful": 8133,
      "bour": 8134,
      "Ġestablished": 8135,
      "Ġvehicle": 8136,
      "Ġreplied": 8137,
      "Ġ\\{": 8138,
      "Label": 8139,
      "ĠLED": 8140,
      "ker": 8141,
      "è¡Įä¸º": 8142,
      "èįī": 8143,
      "Ġriver": 8144,
      "Ġdelete": 8145,
      "Ġapart": 8146,
      "ÑģÑĬ": 8147,
      "Ġfilled": 8148,
      "friend": 8149,
      "å¢ŀåĬł": 8150,
      "Ġsand": 8151,
      "çĸĳ": 8152,
      "ashed": 8153,
      "omorph": 8154,
      "Ġpieces": 8155,
      "ãĢĳ": 8156,
      "output": 8157,
      "æıĲåįĩ": 8158,
      "Ġsecure": 8159,
      "ncy": 8160,
      "å®ĮæĪĲ": 8161,
      "<!--": 8162,
      "Ġfamilies": 8163,
      "Ġlady": 8164,
      "Ġthreat": 8165,
      "Ġconeg": 8166,
      "cie": 8167,
      "Ġtrouble": 8168,
      "standing": 8169,
      "Ġfashion": 8170,
      "graph": 8171,
      "agger": 8172,
      "True": 8173,
      "Ġcombination": 8174,
      "Ġusage": 8175,
      "ä¸ĢæŃ¥": 8176,
      "å·¥ç¨ĭ": 8177,
      "ĠWork": 8178,
      "Ġbug": 8179,
      "produ": 8180,
      "Server": 8181,
      "ounter": 8182,
      "çļĦå¤§": 8183,
      "å®ģ": 8184,
      "Ġpas": 8185,
      "Ġstories": 8186,
      "IB": 8187,
      "Ġforth": 8188,
      "mathsf": 8189,
      "onday": 8190,
      "ERR": 8191,
      "dule": 8192,
      "Ġwine": 8193,
      "ueix": 8194,
      "Ġrapid": 8195,
      "ĠWashington": 8196,
      "åĲĪä½ľ": 8197,
      "ĠCas": 8198,
      "Ġpatient": 8199,
      "ĠAC": 8200,
      "Ġdro": 8201,
      "ĠFriday": 8202,
      "MM": 8203,
      "Ġscience": 8204,
      "Ġprocedure": 8205,
      "}/": 8206,
      "aa": 8207,
      "Ġviews": 8208,
      "Ġpersones": 8209,
      "isation": 8210,
      "ĠGeorge": 8211,
      "Ġprin": 8212,
      "Ġsociety": 8213,
      "onic": 8214,
      "tw": 8215,
      "ÑĤÑĬÑĢ": 8216,
      "Ġspecies": 8217,
      "ÐµÐ²": 8218,
      "åĩºäºĨ": 8219,
      "ÑģÐ»ÐµÐ´": 8220,
      "Ġaren": 8221,
      "desc": 8222,
      "Ġaim": 8223,
      "Ġchosen": 8224,
      "Ġscope": 8225,
      ")-": 8226,
      "å¿ħé¡»": 8227,
      "ĠUniversitat": 8228,
      "çĶ³": 8229,
      "operator": 8230,
      "ĠCam": 8231,
      "Frame": 8232,
      "æķĪæŀľ": 8233,
      "ĠÐ²ÑĢÐµÐ¼Ðµ": 8234,
      "Ġconcent": 8235,
      "ĠÐ±ÑĬÐ»Ð³Ð°ÑĢ": 8236,
      "yr": 8237,
      "ĠDepartment": 8238,
      "push": 8239,
      "Ġfat": 8240,
      "Ġlad": 8241,
      "Ġleaves": 8242,
      "ĠCle": 8243,
      "Ġprotection": 8244,
      "æłĳ": 8245,
      "èĭ¥": 8246,
      "Ġcolors": 8247,
      "ç«Ł": 8248,
      "overy": 8249,
      "estival": 8250,
      "comple": 8251,
      "Ġneighbor": 8252,
      "æ²Ļ": 8253,
      "Ġlaws": 8254,
      "ologies": 8255,
      "è¡Ĺ": 8256,
      "lam": 8257,
      "enci": 8258,
      "Ġsuppose": 8259,
      "åı¥": 8260,
      "Ð¶Ð´Ñĥ": 8261,
      "HERE": 8262,
      "Ġprofession": 8263,
      "ĠGold": 8264,
      "Ġmovie": 8265,
      "Ġimplies": 8266,
      "ĠAtt": 8267,
      "Ġflex": 8268,
      "FO": 8269,
      "åĢĴ": 8270,
      "Ġforces": 8271,
      "NE": 8272,
      "èĦ¸": 8273,
      "åľĪ": 8274,
      "ĠView": 8275,
      "Ġstreet": 8276,
      "ito": 8277,
      "Psi": 8278,
      "ĠProgram": 8279,
      "ses": 8280,
      "Ġveg": 8281,
      "ç»©": 8282,
      "ĠFacebook": 8283,
      "Ġlots": 8284,
      "Ġmig": 8285,
      "Ġadopt": 8286,
      "Ġshift": 8287,
      "Ġcells": 8288,
      "cies": 8289,
      "ĠÐ¸Ð¼": 8290,
      "Factory": 8291,
      "Ġgift": 8292,
      "Ġgenerate": 8293,
      "Ġce": 8294,
      "Ġcentury": 8295,
      "Ġafford": 8296,
      "Ġcommunication": 8297,
      "Ġminute": 8298,
      "maz": 8299,
      "Ã¤": 8300,
      "Fig": 8301,
      "})\\": 8302,
      "è¡¨çİ°": 8303,
      "oday": 8304,
      "Ġlab": 8305,
      "Ġ((": 8306,
      "Ġrise": 8307,
      "Ġmovement": 8308,
      "Ġcin": 8309,
      "ĠClub": 8310,
      "æ¢¦": 8311,
      "æĬĹ": 8312,
      "è¿ĲåĬ¨": 8313,
      "Ġinterview": 8314,
      "Ġfinish": 8315,
      "æŀĲ": 8316,
      "Ġdiscussion": 8317,
      "hens": 8318,
      "ĠInternet": 8319,
      "NO": 8320,
      "stood": 8321,
      "Web": 8322,
      "kit": 8323,
      "Ġgarden": 8324,
      "ander": 8325,
      "ĠMuse": 8326,
      "Ġdra": 8327,
      "ĠExt": 8328,
      "çĻ»": 8329,
      "åİĨåı²": 8330,
      "CR": 8331,
      "ĠMer": 8332,
      "ORT": 8333,
      "totype": 8334,
      "Ġinnov": 8335,
      "æ²»çĸĹ": 8336,
      "description": 8337,
      "ixed": 8338,
      "Ġfi": 8339,
      "æ¸¸æĪı": 8340,
      "Ð¤": 8341,
      "ĠĠĠĠĠĠĠĠĠĠĠĠĠĠĠĠĠĠ": 8342,
      "env": 8343,
      "åĮħæĭ¬": 8344,
      "ç¡Ģ": 8345,
      "Ġrepresentation": 8346,
      "Ġestablish": 8347,
      "qquad": 8348,
      "Ġbeauty": 8349,
      "Ġattend": 8350,
      "seg": 8351,
      "ç£": 8352,
      "éļľ": 8353,
      "åħ³æ³¨": 8354,
      "ĠBay": 8355,
      "Book": 8356,
      "Ġthousand": 8357,
      "ato": 8358,
      "åŁºç¡Ģ": 8359,
      "Ġprou": 8360,
      "Ġadult": 8361,
      "iga": 8362,
      "equiv": 8363,
      "Ġgate": 8364,
      "è·ĳ": 8365,
      "Ġimpress": 8366,
      "digo": 8367,
      "tag": 8368,
      "Ġchain": 8369,
      "Ġactions": 8370,
      "unfinished": 8371,
      "Ġpolice": 8372,
      "Ġforeign": 8373,
      "Ġcollege": 8374,
      "åĩºæĿ¥": 8375,
      "otic": 8376,
      "itness": 8377,
      "uer": 8378,
      "uman": 8379,
      "èĦļ": 8380,
      "Run": 8381,
      "std": 8382,
      "Ġowner": 8383,
      "icions": 8384,
      "è´£ä»»": 8385,
      "ĠEnd": 8386,
      "Ġstrange": 8387,
      "çļĦè¯Ŀ": 8388,
      "Ġreplace": 8389,
      "eler": 8390,
      "ĠJesus": 8391,
      "atin": 8392,
      "Ġpoder": 8393,
      "ĠDesign": 8394,
      "å«": 8395,
      "é²ľ": 8396,
      "Ġlargest": 8397,
      "Ġjourney": 8398,
      "weight": 8399,
      "Ġentered": 8400,
      "Ġdelay": 8401,
      "scious": 8402,
      "æ¬§": 8403,
      "Ġquarter": 8404,
      "amin": 8405,
      "å¯¼èĩ´": 8406,
      "asp": 8407,
      "ĠÐ²ÑĬÐ·": 8408,
      "ategory": 8409,
      "ĠMany": 8410,
      "åĪĽæĸ°": 8411,
      "Equal": 8412,
      "è§£åĨ³": 8413,
      "Gr": 8414,
      "ÑħÐ°": 8415,
      "å¾ģ": 8416,
      "ws": 8417,
      "Button": 8418,
      "indent": 8419,
      "Ġhyp": 8420,
      "Rel": 8421,
      "Ġtenien": 8422,
      "Ġbudget": 8423,
      "Ġcapacity": 8424,
      "ÑĩÐµÐ½": 8425,
      "Ġprocessing": 8426,
      "ĠLeg": 8427,
      "acks": 8428,
      "endar": 8429,
      "oct": 8430,
      "é¥®": 8431,
      "arth": 8432,
      "Ġlose": 8433,
      "avor": 8434,
      "Ġkeeping": 8435,
      "cut": 8436,
      "è°Ī": 8437,
      "æĢķ": 8438,
      "BA": 8439,
      "å¹ħ": 8440,
      "Ġchem": 8441,
      "App": 8442,
      "å¢ŀéķ¿": 8443,
      "é¥Ń": 8444,
      "ifications": 8445,
      "Ð¿ÑĢÐµ": 8446,
      "DO": 8447,
      "å®Ī": 8448,
      "æ¸¯": 8449,
      "Ġahead": 8450,
      "Ġversions": 8451,
      "çĶ¨æĪ·": 8452,
      "support": 8453,
      "expected": 8454,
      "Update": 8455,
      "jection": 8456,
      "Ð½Ð¸ÑĨÐ¸": 8457,
      "Cons": 8458,
      "lowing": 8459,
      "æĩ": 8460,
      "mys": 8461,
      "Ġ(\"": 8462,
      "ĠOnce": 8463,
      "Ġreports": 8464,
      "çĳ": 8465,
      "Ġanimals": 8466,
      "\"),": 8467,
      "entry": 8468,
      "ĠÑı": 8469,
      "Ġconsole": 8470,
      "Ġthrows": 8471,
      "ĉĉĉĉĉĉĉĉ": 8472,
      "Ġraised": 8473,
      "ril": 8474,
      "éĥ¨éĹ¨": 8475,
      "Ġraise": 8476,
      "Ġshell": 8477,
      "ÐµÐ¹": 8478,
      "Ġprepared": 8479,
      "æĳĦ": 8480,
      "Child": 8481,
      "ĠÐ§": 8482,
      "åķĬ": 8483,
      "<?": 8484,
      "Ġsnow": 8485,
      "ese": 8486,
      "Ġreduced": 8487,
      "fic": 8488,
      "aped": 8489,
      "åĪĨéĴŁ": 8490,
      "ĠIndian": 8491,
      "Ġdistinct": 8492,
      "roc": 8493,
      "ĠÐ¡Ð¾": 8494,
      "dp": 8495,
      "Comp": 8496,
      "Ð¿Ð¾Ð»": 8497,
      "ĠLO": 8498,
      "Ġdiagram": 8499,
      "example": 8500,
      "Ġstarts": 8501,
      "would": 8502,
      "emple": 8503,
      "ç»§ç»Ń": 8504,
      "çĩ": 8505,
      "REF": 8506,
      "Ġtit": 8507,
      "Sec": 8508,
      "Ġcoff": 8509,
      "åĲĦç§į": 8510,
      "è´«": 8511,
      "Ġdinner": 8512,
      "edom": 8513,
      "={": 8514,
      "Column": 8515,
      "ĠMake": 8516,
      "Te": 8517,
      "HP": 8518,
      "ĠTO": 8519,
      "ĠFebruary": 8520,
      "ben": 8521,
      "Ġtwenty": 8522,
      "Ġapparent": 8523,
      "Ġpreviously": 8524,
      "Dat": 8525,
      "BU": 8526,
      "Ð³Ñĥ": 8527,
      "ĠÐ´ÑĢÑĥ": 8528,
      "ĠEsp": 8529,
      "orial": 8530,
      "ĠBre": 8531,
      "ĠNetwork": 8532,
      "Ġneither": 8533,
      "ted": 8534,
      "è¿İ": 8535,
      "Buffer": 8536,
      "Ġpropos": 8537,
      "Ġclock": 8538,
      "ÑĢÐ°ÑĤÐ°": 8539,
      "Ġestimate": 8540,
      "Ġdriving": 8541,
      "Init": 8542,
      "Ġtroba": 8543,
      "sey": 8544,
      "Ġresistance": 8545,
      "ira": 8546,
      "ypes": 8547,
      "Ġsupposed": 8548,
      "é¡¾": 8549,
      "ãĥ": 8550,
      "Ġregions": 8551,
      "æĶ¿çŃĸ": 8552,
      "äººä»¬": 8553,
      "Ġgrup": 8554,
      "ĠServices": 8555,
      "Ġposted": 8556,
      "drop": 8557,
      "Ġperfectly": 8558,
      "ttp": 8559,
      "åħ³äºİ": 8560,
      "untime": 8561,
      "ĠOl": 8562,
      "gers": 8563,
      "ifts": 8564,
      "ĠGerman": 8565,
      "rian": 8566,
      "ä¹ĭéĹ´": 8567,
      "rica": 8568,
      "door": 8569,
      "ĠPublic": 8570,
      "Ġpunt": 8571,
      "ÑģÑĤÐ²Ðµ": 8572,
      "ç«ŀ": 8573,
      "}}(": 8574,
      "Style": 8575,
      "Ġur": 8576,
      "Ġesta": 8577,
      "Ġaudio": 8578,
      "Ġhelped": 8579,
      "æĶ¯æĮģ": 8580,
      "ĠCD": 8581,
      "ĠSpr": 8582,
      "Ġstopped": 8583,
      "ĠSil": 8584,
      "Met": 8585,
      "Ġgall": 8586,
      "oder": 8587,
      "Ġhence": 8588,
      "even": 8589,
      "Ġratio": 8590,
      "allet": 8591,
      "ĠCourt": 8592,
      "æĢĢ": 8593,
      "III": 8594,
      "Ġbat": 8595,
      "Ġbot": 8596,
      "ä»į": 8597,
      "ĠLife": 8598,
      "è°¢": 8599,
      "Ġscheme": 8600,
      "care": 8601,
      "Ġmouth": 8602,
      "Ġcamera": 8603,
      "ĠPower": 8604,
      "Ġhealthy": 8605,
      "Ġsurv": 8606,
      "èĽĭ": 8607,
      "obj": 8608,
      "Format": 8609,
      "Ġdepending": 8610,
      "apes": 8611,
      "è¿Ļä¹Ī": 8612,
      "Ġlaptop": 8613,
      "Ver": 8614,
      "Ġalternative": 8615,
      "Ġschools": 8616,
      "æĽ´åĬł": 8617,
      "ffff": 8618,
      "riter": 8619,
      "FS": 8620,
      "Ġ$(\\": 8621,
      "Mat": 8622,
      "èĦ±": 8623,
      "Ġho": 8624,
      "arks": 8625,
      "container": 8626,
      "Ġimpossible": 8627,
      "Ġhidden": 8628,
      "æĤ¨": 8629,
      "{{\\": 8630,
      "xspace": 8631,
      "oting": 8632,
      "Ġquantum": 8633,
      "Ġeditor": 8634,
      "rence": 8635,
      "tat": 8636,
      "èľ": 8637,
      "åĨł": 8638,
      "æĹħæ¸¸": 8639,
      "ç´¢": 8640,
      "Â°": 8641,
      "Ġplug": 8642,
      "Ġcup": 8643,
      "Ġpartners": 8644,
      "NAME": 8645,
      "Mr": 8646,
      "Ġwa": 8647,
      "ogr": 8648,
      "ĠLemma": 8649,
      "Ġunits": 8650,
      "NN": 8651,
      "ĠSaturday": 8652,
      "Ġchair": 8653,
      "Ġtots": 8654,
      "è´¨éĩı": 8655,
      "æĿĢ": 8656,
      "Ġcommercial": 8657,
      "Ġpossibly": 8658,
      "Ġcontrast": 8659,
      "ĠWilliam": 8660,
      "andon": 8661,
      "Ġwear": 8662,
      "Ġlived": 8663,
      "filter": 8664,
      "Ġstone": 8665,
      "Ġdisease": 8666,
      "aks": 8667,
      "iverse": 8668,
      "ÑĩÐ²Ð°": 8669,
      "Ġtall": 8670,
      "++)": 8671,
      "è°ģ": 8672,
      "åİĤ": 8673,
      "}\\\\": 8674,
      "ä¸ľè¥¿": 8675,
      "ĉthis": 8676,
      "remove": 8677,
      "Ġwinter": 8678,
      "æİī": 8679,
      "Ġbattle": 8680,
      "ansion": 8681,
      "Ġjug": 8682,
      "SL": 8683,
      "Ġscient": 8684,
      "ĠAPI": 8685,
      "navbar": 8686,
      "Ġnorth": 8687,
      "ĠAlex": 8688,
      "Ġspeech": 8689,
      "ĠMax": 8690,
      "Ġlabor": 8691,
      "anda": 8692,
      "ĠAnn": 8693,
      "ä¹Ŀ": 8694,
      "Ġmanufacture": 8695,
      "ĠCalifornia": 8696,
      "å¸®åĬ©": 8697,
      "ĠConf": 8698,
      "Mon": 8699,
      "Ġfish": 8700,
      "ynch": 8701,
      "æľĿ": 8702,
      "Ġtur": 8703,
      "oded": 8704,
      "||": 8705,
      "stack": 8706,
      "tim": 8707,
      "Ġsolve": 8708,
      "Ġadvert": 8709,
      "ĠArch": 8710,
      "yes": 8711,
      "ĠCH": 8712,
      "ĠEuropean": 8713,
      "Vis": 8714,
      "black": 8715,
      "Ġlisted": 8716,
      "kind": 8717,
      "Ġdrivers": 8718,
      "Ġserved": 8719,
      "attr": 8720,
      "Ġauth": 8721,
      "Ġgradu": 8722,
      "Ġmission": 8723,
      "Ġfamiliar": 8724,
      "Filter": 8725,
      "Ġkeys": 8726,
      "Ġrecords": 8727,
      "Ġrose": 8728,
      "ä¹ĭåīį": 8729,
      "åªĴ": 8730,
      "lines": 8731,
      "Ġentirely": 8732,
      "åĽ½åĨħ": 8733,
      "ername": 8734,
      "ideos": 8735,
      "ĠTur": 8736,
      "etch": 8737,
      "Ġrelax": 8738,
      "./": 8739,
      "Ġasking": 8740,
      "pective": 8741,
      "Ð´Ð½Ð°": 8742,
      "bur": 8743,
      "sica": 8744,
      "Ġcorpor": 8745,
      "ĠÂ£": 8746,
      "envol": 8747,
      "å¤ĦçĲĨ": 8748,
      "Ġbrief": 8749,
      "Dev": 8750,
      "ĠVir": 8751,
      "Ġiron": 8752,
      "Ġappearance": 8753,
      "normal": 8754,
      "\",\"": 8755,
      "ĠUN": 8756,
      "linux": 8757,
      "Ġdesired": 8758,
      "æķĳ": 8759,
      "Ġdepth": 8760,
      "riptor": 8761,
      "acity": 8762,
      "Ġ\\$": 8763,
      "vention": 8764,
      "Ġtenir": 8765,
      "Ġcategory": 8766,
      "è®°èĢħ": 8767,
      "åĵĪ": 8768,
      "iration": 8769,
      "Ġpassion": 8770,
      "Ġgentle": 8771,
      "sin": 8772,
      "ĠIns": 8773,
      "éĹ»": 8774,
      "Output": 8775,
      "Layout": 8776,
      "ĠBusiness": 8777,
      "æĻºèĥ½": 8778,
      "Ġhonest": 8779,
      "Ġdirig": 8780,
      "çļĦå°ı": 8781,
      "ÑģÑĤÐ²Ð°": 8782,
      "Pat": 8783,
      "ulse": 8784,
      "Âłhabitants": 8785,
      "çŃ¾": 8786,
      "sn": 8787,
      "Ġodd": 8788,
      "Ġboundary": 8789,
      "åĲ¯": 8790,
      "matrix": 8791,
      "eger": 8792,
      "âĨ": 8793,
      "åºı": 8794,
      "çĿ¡": 8795,
      "Ġmanage": 8796,
      "Ġowners": 8797,
      "asi": 8798,
      "Ġshoot": 8799,
      "Ġplain": 8800,
      "Ġje": 8801,
      "'$": 8802,
      "Ġsector": 8803,
      "Ġnodes": 8804,
      "esome": 8805,
      "Ð´Ð¸Ð½": 8806,
      "ĠWil": 8807,
      "ouncil": 8808,
      "å½¢æĪĲ": 8809,
      "Ġjoy": 8810,
      "Ġoffset": 8811,
      "Ġcash": 8812,
      "response": 8813,
      "Ġculture": 8814,
      "ç³ĸ": 8815,
      "ä»»ä½ķ": 8816,
      "^+": 8817,
      "å¥¶": 8818,
      "olar": 8819,
      "å½ĵæĹ¶": 8820,
      "Ġboys": 8821,
      "Ġelectr": 8822,
      "Ġlaunch": 8823,
      "Ġdispos": 8824,
      "ifact": 8825,
      "]$": 8826,
      "ÑĨÐ¸ÑĤÐµ": 8827,
      "ĠStart": 8828,
      "udio": 8829,
      "ç½ª": 8830,
      "unn": 8831,
      "osc": 8832,
      "éĻ¤äºĨ": 8833,
      "Ġmagnetic": 8834,
      "pad": 8835,
      "Ġdesire": 8836,
      "Ġexperienced": 8837,
      "rolled": 8838,
      "ĠSmith": 8839,
      "åľ°åĮº": 8840,
      "ĠHD": 8841,
      "Ġsynt": 8842,
      "Ġidentify": 8843,
      "sd": 8844,
      "nections": 8845,
      "æ¯ĶèµĽ": 8846,
      "ĠÐ¿Ð¸": 8847,
      "Ġorient": 8848,
      "Ġil": 8849,
      "ĠJul": 8850,
      "ĠKey": 8851,
      "fortunately": 8852,
      "ĠAL": 8853,
      "Co": 8854,
      "ptr": 8855,
      "è½¯": 8856,
      "ç»¼": 8857,
      "inese": 8858,
      "Ġyouth": 8859,
      "Dep": 8860,
      "Also": 8861,
      "Ð·Ð½Ð°": 8862,
      "}^{(": 8863,
      "going": 8864,
      "Ġcards": 8865,
      "æĺ¯åĲ¦": 8866,
      "scr": 8867,
      "Ġsouth": 8868,
      "Ġintended": 8869,
      "Ġbag": 8870,
      "'),": 8871,
      "Ġresponsible": 8872,
      "ORD": 8873,
      "ç»ĵæŀľ": 8874,
      "Ġdecide": 8875,
      "æľīçļĦ": 8876,
      "anned": 8877,
      "Ġsuperior": 8878,
      "onom": 8879,
      "ĠWhere": 8880,
      "Ġstrict": 8881,
      "ĠPack": 8882,
      "åħ¸": 8883,
      "Ġcontroller": 8884,
      "æľºæŀĦ": 8885,
      "ĠWho": 8886,
      "Ġcompare": 8887,
      "ĠDevelop": 8888,
      "SO": 8889,
      "åıĳå¸ĥ": 8890,
      "Ġcontaining": 8891,
      ".$": 8892,
      "Ġfle": 8893,
      "May": 8894,
      "document": 8895,
      "Ġbeat": 8896,
      "ĠProject": 8897,
      "Ġstanding": 8898,
      "Ġconce": 8899,
      "ĠCanada": 8900,
      "Ġpolic": 8901,
      "Ġemployees": 8902,
      "olic": 8903,
      "ented": 8904,
      "cache": 8905,
      "ĠCall": 8906,
      "sor": 8907,
      "missions": 8908,
      "bi": 8909,
      "aked": 8910,
      "ĠFlor": 8911,
      "Ġ&\\": 8912,
      "ĠParis": 8913,
      "bet": 8914,
      "Ġfabric": 8915,
      "ĠPlan": 8916,
      "Ġextended": 8917,
      "tml": 8918,
      "Ġchallenge": 8919,
      "Ġcomparison": 8920,
      "Ġspoke": 8921,
      "Ġgerm": 8922,
      "å°ļ": 8923,
      "Max": 8924,
      "Return": 8925,
      "gle": 8926,
      "Ġintr": 8927,
      "rule": 8928,
      "Ġhardware": 8929,
      "èģļ": 8930,
      "Ġmilitary": 8931,
      "Ġencara": 8932,
      "lles": 8933,
      "Ġbon": 8934,
      "Ġequations": 8935,
      "ĠUsing": 8936,
      "çŃĶ": 8937,
      "Ġregister": 8938,
      "Ġbought": 8939,
      "edy": 8940,
      "agn": 8941,
      "å®ŀéĻħ": 8942,
      "Ġagent": 8943,
      "ĠPress": 8944,
      "é¡¶": 8945,
      "Ġnatur": 8946,
      "Ġadvanced": 8947,
      "water": 8948,
      "about": 8949,
      "Ġefforts": 8950,
      "Top": 8951,
      "envolup": 8952,
      "prim": 8953,
      "odo": 8954,
      "è¿Ŀ": 8955,
      "--\"": 8956,
      "Ġconflic": 8957,
      "Ġtherm": 8958,
      "Ġreader": 8959,
      "yg": 8960,
      "Ġupdates": 8961,
      "}\\,": 8962,
      "Ġsuddenly": 8963,
      "Ġboat": 8964,
      "Ġtrend": 8965,
      "ĠMain": 8966,
      "ĠLook": 8967,
      "çľŁçļĦ": 8968,
      "background": 8969,
      "Ġformal": 8970,
      "~$": 8971,
      "icate": 8972,
      "Controller": 8973,
      "ĠÑĩÐ°ÑģÑĤ": 8974,
      "abil": 8975,
      "Ġopportunities": 8976,
      "çģ¯": 8977,
      "éģ¿": 8978,
      "Ġgeneration": 8979,
      "Ġalign": 8980,
      "serve": 8981,
      "Ġbear": 8982,
      "Ġpartir": 8983,
      "amente": 8984,
      "å®¶åºŃ": 8985,
      "Ġupgrade": 8986,
      "Mem": 8987,
      "och": 8988,
      "Ġ<!--": 8989,
      "ccion": 8990,
      "Ġmetal": 8991,
      "Ġvary": 8992,
      "vid": 8993,
      "{}": 8994,
      "LASS": 8995,
      "Ġdual": 8996,
      "Ġsomewhat": 8997,
      "Ġuniform": 8998,
      "je": 8999,
      "Ġfavour": 9000,
      "ÐºÑĤ": 9001,
      "bal": 9002,
      "Ġdesktop": 9003,
      "Ġbreath": 9004,
      "Ġkm": 9005,
      "éĵ¶è¡Į": 9006,
      "æľīéĻĲ": 9007,
      "ĠÐ±Ð°": 9008,
      "cial": 9009,
      "Ġmant": 9010,
      "ĠJe": 9011,
      "Ġfant": 9012,
      "RI": 9013,
      "Eng": 9014,
      "power": 9015,
      "Ġcomfortable": 9016,
      "icans": 9017,
      "appy": 9018,
      "å¤ı": 9019,
      "sect": 9020,
      "ometimes": 9021,
      "Ġtele": 9022,
      "Ġrepair": 9023,
      "ye": 9024,
      "ÑĪÐ½Ð¸": 9025,
      "ubre": 9026,
      "Ġelimin": 9027,
      "ĠBecause": 9028,
      "ç¤¼": 9029,
      "Car": 9030,
      "Ġlisten": 9031,
      "ä»·åĢ¼": 9032,
      "sur": 9033,
      "Ġspeaking": 9034,
      "ĠBest": 9035,
      "Ġsust": 9036,
      "é¦Ĩ": 9037,
      "ĠCON": 9038,
      "ĠCa": 9039,
      "Pack": 9040,
      "umerate": 9041,
      "éľ²": 9042,
      "Ġhur": 9043,
      "ĠNews": 9044,
      "ifies": 9045,
      "ilos": 9046,
      "ç»į": 9047,
      "ĠÐ°ÑĢ": 9048,
      "éĶ®": 9049,
      "tol": 9050,
      "Ġexplicit": 9051,
      "Ġgoals": 9052,
      "ÐŁÐ¾": 9053,
      "ĠLl": 9054,
      "ĠLong": 9055,
      "Script": 9056,
      "hetic": 9057,
      "sign": 9058,
      "Ġimportance": 9059,
      "éĴĪ": 9060,
      "æĸ°çļĦ": 9061,
      "è¾¾åĪ°": 9062,
      "Ġtemplate": 9063,
      "äº¤éĢļ": 9064,
      "Ġanomen": 9065,
      "åĸĿ": 9066,
      "ontal": 9067,
      "URL": 9068,
      "éħ¸": 9069,
      "æŁĵ": 9070,
      "å¨ģ": 9071,
      "Ġbackup": 9072,
      "ä¸ĢçĤ¹": 9073,
      "Ġhonor": 9074,
      "åı¶": 9075,
      "æīįèĥ½": 9076,
      "æĿ¨": 9077,
      "Ġcheap": 9078,
      "èĹı": 9079,
      "è¿°": 9080,
      "Write": 9081,
      "}:": 9082,
      "Ġrecon": 9083,
      "ali": 9084,
      "Person": 9085,
      "Ġbalance": 9086,
      "æ¯ıå¤©": 9087,
      "Ð¼Ð¸ÑĢÐ°": 9088,
      "itut": 9089,
      "Ġought": 9090,
      "æĹłæ³ķ": 9091,
      "Address": 9092,
      "ä¼´": 9093,
      "empres": 9094,
      "è·Į": 9095,
      "ĠSing": 9096,
      "files": 9097,
      "ĠVis": 9098,
      "ÑıÑĤÐ¾": 9099,
      "ACK": 9100,
      "Thank": 9101,
      "æĸĹ": 9102,
      "Ġarguments": 9103,
      "éĢłæĪĲ": 9104,
      "Ġsuggested": 9105,
      "Ġsharing": 9106,
      "æĹ¶ä»£": 9107,
      "Ġmunicipi": 9108,
      "Ġrough": 9109,
      "vas": 9110,
      "Ġhighlight": 9111,
      "é©¶": 9112,
      "æķ£": 9113,
      "rible": 9114,
      "Function": 9115,
      "faces": 9116,
      "Ð½Ð¾Ð²": 9117,
      "Ġpron": 9118,
      "Ġnucle": 9119,
      "Ġenabled": 9120,
      "eting": 9121,
      "lies": 9122,
      "Ġfailure": 9123,
      "}}{\\": 9124,
      "æ¯Ķå¦Ĥ": 9125,
      "æľªæĿ¥": 9126,
      "road": 9127,
      "Ġduty": 9128,
      "ogether": 9129,
      "Ġcompat": 9130,
      "Ġtests": 9131,
      "éĢĲ": 9132,
      "plications": 9133,
      "Ġoblig": 9134,
      "çĽĸ": 9135,
      "Use": 9136,
      "Ġprompt": 9137,
      "unc": 9138,
      "Ġoffering": 9139,
      "ĠÑģÑĢÐµ": 9140,
      "ĠResearch": 9141,
      "ĠSum": 9142,
      "Ġconfirm": 9143,
      "Ġ{@": 9144,
      "hav": 9145,
      "kin": 9146,
      "Ġdiscussed": 9147,
      "æľīäºĽ": 9148,
      "Ġcauses": 9149,
      "reens": 9150,
      "ĠApp": 9151,
      "pp": 9152,
      "ä¼ĳ": 9153,
      "Ġfaster": 9154,
      "ĠEv": 9155,
      "ãĤ": 9156,
      "ĠÐ½ÐµÐ³Ð¾": 9157,
      "å½ĵçĦ¶": 9158,
      "Ġarticles": 9159,
      "SA": 9160,
      "ĠTop": 9161,
      "Ġorders": 9162,
      "Ġformed": 9163,
      "&=": 9164,
      "ilton": 9165,
      "ĠCE": 9166,
      "Ġrect": 9167,
      "strap": 9168,
      "Po": 9169,
      "Ġcycle": 9170,
      "icion": 9171,
      "Ġdiscover": 9172,
      "çĶ°": 9173,
      "osh": 9174,
      "Ġdelight": 9175,
      "Ġmessages": 9176,
      "Ð»Ð¸ÑĤÐµ": 9177,
      "ÐºÐ¾Ð²": 9178,
      "ĠNor": 9179,
      "Ġeconomic": 9180,
      "obert": 9181,
      "Ġtraffic": 9182,
      "onal": 9183,
      "Ġtypically": 9184,
      "Ġdocuments": 9185,
      "å¼Ģå±ķ": 9186,
      "Ġletters": 9187,
      "ç©ºéĹ´": 9188,
      "Ġaccompl": 9189,
      "Ġoperating": 9190,
      "ĠTheir": 9191,
      "ĠFrank": 9192,
      "ĠLu": 9193,
      "Ġexistence": 9194,
      "ĠÐ½Ñı": 9195,
      "tx": 9196,
      "Ġtelev": 9197,
      "Ġok": 9198,
      "isters": 9199,
      "Ġvisible": 9200,
      "persones": 9201,
      "ĠBet": 9202,
      "tn": 9203,
      "ĠMichael": 9204,
      "prec": 9205,
      "iki": 9206,
      "Ð²ÐµÑĤ": 9207,
      "éĺ¶": 9208,
      "Ġqued": 9209,
      "ä¿ĥ": 9210,
      "Ġdenote": 9211,
      "cknow": 9212,
      "ĉ\"": 9213,
      "Row": 9214,
      "step": 9215,
      "Ġexcited": 9216,
      "Ġ**": 9217,
      "tree": 9218,
      "ç¬¬ä¸ī": 9219,
      "los": 9220,
      "ĠBas": 9221,
      "idel": 9222,
      "resents": 9223,
      "Ġtasks": 9224,
      "Ġbusinesses": 9225,
      "Ġsides": 9226,
      "Ġgalax": 9227,
      "Âłpersones": 9228,
      "é¸¡": 9229,
      "ternoon": 9230,
      "ĠGran": 9231,
      "orig": 9232,
      "Ġsister": 9233,
      "ä¿ĿæĬ¤": 9234,
      "endif": 9235,
      "Ġturns": 9236,
      "Ġquad": 9237,
      "rend": 9238,
      "å½Ĵ": 9239,
      "éĢı": 9240,
      "amm": 9241,
      "Ġuncertain": 9242,
      "ĠHall": 9243,
      "([": 9244,
      "exas": 9245,
      "Ġjobs": 9246,
      "Ġreviews": 9247,
      "Ġannounced": 9248,
      "eness": 9249,
      "','": 9250,
      "ĠDiv": 9251,
      "citet": 9252,
      "values": 9253,
      "èµĦæºĲ": 9254,
      "Ġunknown": 9255,
      "clusive": 9256,
      "éĶĢåĶ®": 9257,
      "MO": 9258,
      "Ġevolution": 9259,
      "ĠBig": 9260,
      "otal": 9261,
      "æİ§åĪ¶": 9262,
      "linear": 9263,
      "ĠiPhone": 9264,
      "Just": 9265,
      "åĪĨæŀĲ": 9266,
      "Ġnotes": 9267,
      "âĶĢâĶĢ": 9268,
      "Ġobst": 9269,
      "tical": 9270,
      "Ġabsolutely": 9271,
      "ĠRoy": 9272,
      "Ġcolour": 9273,
      "Ġaccident": 9274,
      "ĠSl": 9275,
      "ä½³": 9276,
      "ä¸ĩåħĥ": 9277,
      "Ġentertain": 9278,
      "Ġlie": 9279,
      "Dec": 9280,
      "Ġtechniques": 9281,
      "æ¶²": 9282,
      "ÐĽ": 9283,
      "èį£": 9284,
      "ĠAngel": 9285,
      "Ġsuitable": 9286,
      "card": 9287,
      "ĠCouncil": 9288,
      "éļıçĿĢ": 9289,
      "Ġbrain": 9290,
      "çĪ¸": 9291,
      "Ġtopic": 9292,
      "ĠError": 9293,
      "Ġsetembre": 9294,
      "Ġlogin": 9295,
      "AGE": 9296,
      "pled": 9297,
      "ĠTwo": 9298,
      "Ġnoticed": 9299,
      "ĠPeter": 9300,
      "neq": 9301,
      "éª¨": 9302,
      "}+\\": 9303,
      "Ġparallel": 9304,
      "BO": 9305,
      "ĠDate": 9306,
      "txt": 9307,
      "ading": 9308,
      "äº§çĶŁ": 9309,
      "åį±": 9310,
      "Ġprison": 9311,
      "ĠÐľÐ¸": 9312,
      "$(": 9313,
      "Ġderiv": 9314,
      "ĠOnly": 9315,
      "Ġincorpor": 9316,
      "Ġcaught": 9317,
      "æľīæķĪ": 9318,
      "Ġradio": 9319,
      "ĠOld": 9320,
      "ĠRiver": 9321,
      "Ġputting": 9322,
      "ä¸Ĭæµ·": 9323,
      "ĠMA": 9324,
      "Ġremaining": 9325,
      "Ġproud": 9326,
      "Ġmentre": 9327,
      "Ġsle": 9328,
      "Ġconfigure": 9329,
      "Ġdar": 9330,
      "mac": 9331,
      "ĠGener": 9332,
      "Ġdetailed": 9333,
      "Ġya": 9334,
      "Ġwelcome": 9335,
      "Ġresulting": 9336,
      "ä¿ĿæĮģ": 9337,
      "ä¹Łæľī": 9338,
      "ĠLove": 9339,
      "ĠMonday": 9340,
      "åĬª": 9341,
      "bul": 9342,
      "break": 9343,
      "Ġcontinuous": 9344,
      "second": 9345,
      "çĤİ": 9346,
      "Ġflag": 9347,
      "etes": 9348,
      "å¸ģ": 9349,
      "Ġconversation": 9350,
      "Ġdiscovered": 9351,
      "Ġllarg": 9352,
      "segu": 9353,
      "yal": 9354,
      "%;": 9355,
      "Ġcoffee": 9356,
      "æ¸Ĳ": 9357,
      "Ġembed": 9358,
      "Ġemb": 9359,
      "ados": 9360,
      "å®Įåħ¨": 9361,
      "////////////////": 9362,
      "CM": 9363,
      "uled": 9364,
      "Ġagreement": 9365,
      "arian": 9366,
      "Ġfunci": 9367,
      "Ġsitting": 9368,
      "é¹": 9369,
      "ĠAv": 9370,
      "ĠĠĠĠĠĠĠĠĠĠĠĠĠĠĠĠĠĠĠĠĠĠĠĠĠĠĠĠĠĠĠĠĠĠĠĠĠĠĠĠĠĠĠĠĠĠĠĠĠĠĠĠĠĠĠĠĠĠĠĠĠĠĠĠ": 9371,
      "æ´²": 9372,
      "Ġrid": 9373,
      "Valid": 9374,
      "é¥°": 9375,
      "âķĲ": 9376,
      "Ġconsistent": 9377,
      "ĠGL": 9378,
      "ĠSanta": 9379,
      "Bo": 9380,
      "ridge": 9381,
      "onym": 9382,
      "Ġmanaged": 9383,
      "éľĢæ±Ĥ": 9384,
      "ÑĮÐ¾": 9385,
      "Ġtransaction": 9386,
      "å»¶": 9387,
      "Ġtechnical": 9388,
      "lets": 9389,
      "direct": 9390,
      "|^": 9391,
      "generic": 9392,
      "ez": 9393,
      "Ġhelpful": 9394,
      "åıªè¦ģ": 9395,
      "ÐĿÐ°": 9396,
      "Ġthee": 9397,
      "Ġlif": 9398,
      "äº¤æĺĵ": 9399,
      "Ġice": 9400,
      "éĩĩçĶ¨": 9401,
      "ĠSoft": 9402,
      "Length": 9403,
      "ÑĩÐµÑģÐºÐ¸": 9404,
      "Ġslowly": 9405,
      "å°ıæĹ¶": 9406,
      "apple": 9407,
      "ĠÐ°Ð²": 9408,
      "Ġremote": 9409,
      "Ġblocks": 9410,
      "è¸": 9411,
      "Ġcommands": 9412,
      "ĠOffice": 9413,
      "Ġstored": 9414,
      "unit": 9415,
      "Ġbuffer": 9416,
      "çĸ¾": 9417,
      "Ð¾Ð³ÑĢÐ°": 9418,
      "Ġsamples": 9419,
      "æĪĳä»¬çļĦ": 9420,
      "Ġcens": 9421,
      "ĠFort": 9422,
      "Ġinvestment": 9423,
      "ĠGen": 9424,
      "author": 9425,
      "hy": 9426,
      "éĽĨåĽ¢": 9427,
      "ĠNE": 9428,
      "bres": 9429,
      "isher": 9430,
      "çĪĨ": 9431,
      "éĽª": 9432,
      "ĠMicrosoft": 9433,
      "wrap": 9434,
      "âĦ": 9435,
      "Ġsad": 9436,
      "ÑĬÑĢÐ¶Ð°": 9437,
      "ç®Ģåįķ": 9438,
      "ĠAT": 9439,
      "Mode": 9440,
      "çĬ¯": 9441,
      "terday": 9442,
      "Ġmeasures": 9443,
      "Ġmail": 9444,
      "Ġapps": 9445,
      "ccions": 9446,
      "buf": 9447,
      "Ġven": 9448,
      "Mar": 9449,
      "Ġpoden": 9450,
      "Direct": 9451,
      "Ġformula": 9452,
      "uses": 9453,
      "Ġinstructions": 9454,
      "Ġtaste": 9455,
      "Ġstable": 9456,
      "æµª": 9457,
      "Ġantic": 9458,
      "Ġdesenvolup": 9459,
      "izar": 9460,
      "å·¨": 9461,
      "spe": 9462,
      ")/": 9463,
      ".[": 9464,
      "ç«¥": 9465,
      "ĠTamb": 9466,
      "è¶ħè¿ĩ": 9467,
      "(&": 9468,
      "Ġfloat": 9469,
      "Ġenemy": 9470,
      "ä¸įå°ĳ": 9471,
      "ĠÐ²Ðµ": 9472,
      "Ġweekend": 9473,
      "device": 9474,
      "å¾ĹåĪ°": 9475,
      "æĭ¥æľī": 9476,
[...]
